unsigned char model_tflite[] = {
  0x1c, 0x00, 0x00, 0x00, 0x54, 0x46, 0x4c, 0x33, 0x14, 0x00, 0x20, 0x00,
  0x1c, 0x00, 0x18, 0x00, 0x14, 0x00, 0x10, 0x00, 0x0c, 0x00, 0x00, 0x00,
  0x08, 0x00, 0x04, 0x00, 0x14, 0x00, 0x00, 0x00, 0x1c, 0x00, 0x00, 0x00,
  0x98, 0x00, 0x00, 0x00, 0xf0, 0x00, 0x00, 0x00, 0x58, 0x1a, 0x00, 0x00,
  0x68, 0x1a, 0x00, 0x00, 0x18, 0x20, 0x00, 0x00, 0x03, 0x00, 0x00, 0x00,
  0x01, 0x00, 0x00, 0x00, 0x10, 0x00, 0x00, 0x00, 0x00, 0x00, 0x0a, 0x00,
  0x10, 0x00, 0x0c, 0x00, 0x08, 0x00, 0x04, 0x00, 0x0a, 0x00, 0x00, 0x00,
  0x0c, 0x00, 0x00, 0x00, 0x1c, 0x00, 0x00, 0x00, 0x3c, 0x00, 0x00, 0x00,
  0x0f, 0x00, 0x00, 0x00, 0x73, 0x65, 0x72, 0x76, 0x69, 0x6e, 0x67, 0x5f,
  0x64, 0x65, 0x66, 0x61, 0x75, 0x6c, 0x74, 0x00, 0x01, 0x00, 0x00, 0x00,
  0x04, 0x00, 0x00, 0x00, 0x90, 0xff, 0xff, 0xff, 0x0a, 0x00, 0x00, 0x00,
  0x04, 0x00, 0x00, 0x00, 0x08, 0x00, 0x00, 0x00, 0x6f, 0x75, 0x74, 0x70,
  0x75, 0x74, 0x5f, 0x30, 0x00, 0x00, 0x00, 0x00, 0x01, 0x00, 0x00, 0x00,
  0x04, 0x00, 0x00, 0x00, 0x8e, 0xe5, 0xff, 0xff, 0x04, 0x00, 0x00, 0x00,
  0x0d, 0x00, 0x00, 0x00, 0x69, 0x6e, 0x70, 0x75, 0x74, 0x5f, 0x6c, 0x61,
  0x79, 0x65, 0x72, 0x5f, 0x31, 0x00, 0x00, 0x00, 0x02, 0x00, 0x00, 0x00,
  0x34, 0x00, 0x00, 0x00, 0x04, 0x00, 0x00, 0x00, 0xdc, 0xff, 0xff, 0xff,
  0x0d, 0x00, 0x00, 0x00, 0x04, 0x00, 0x00, 0x00, 0x13, 0x00, 0x00, 0x00,
  0x43, 0x4f, 0x4e, 0x56, 0x45, 0x52, 0x53, 0x49, 0x4f, 0x4e, 0x5f, 0x4d,
  0x45, 0x54, 0x41, 0x44, 0x41, 0x54, 0x41, 0x00, 0x08, 0x00, 0x0c, 0x00,
  0x08, 0x00, 0x04, 0x00, 0x08, 0x00, 0x00, 0x00, 0x0c, 0x00, 0x00, 0x00,
  0x04, 0x00, 0x00, 0x00, 0x13, 0x00, 0x00, 0x00, 0x6d, 0x69, 0x6e, 0x5f,
  0x72, 0x75, 0x6e, 0x74, 0x69, 0x6d, 0x65, 0x5f, 0x76, 0x65, 0x72, 0x73,
  0x69, 0x6f, 0x6e, 0x00, 0x0e, 0x00, 0x00, 0x00, 0x64, 0x19, 0x00, 0x00,
  0x5c, 0x19, 0x00, 0x00, 0xcc, 0x18, 0x00, 0x00, 0xbc, 0x10, 0x00, 0x00,
  0xa4, 0x10, 0x00, 0x00, 0x54, 0x10, 0x00, 0x00, 0xc4, 0x0f, 0x00, 0x00,
  0xb4, 0x00, 0x00, 0x00, 0xac, 0x00, 0x00, 0x00, 0xa4, 0x00, 0x00, 0x00,
  0x9c, 0x00, 0x00, 0x00, 0x94, 0x00, 0x00, 0x00, 0x74, 0x00, 0x00, 0x00,
  0x04, 0x00, 0x00, 0x00, 0x42, 0xe6, 0xff, 0xff, 0x04, 0x00, 0x00, 0x00,
  0x60, 0x00, 0x00, 0x00, 0x10, 0x00, 0x00, 0x00, 0x00, 0x00, 0x00, 0x00,
  0x08, 0x00, 0x0e, 0x00, 0x08, 0x00, 0x04, 0x00, 0x08, 0x00, 0x00, 0x00,
  0x10, 0x00, 0x00, 0x00, 0x24, 0x00, 0x00, 0x00, 0x00, 0x00, 0x06, 0x00,
  0x08, 0x00, 0x04, 0x00, 0x06, 0x00, 0x00, 0x00, 0x04, 0x00, 0x00, 0x00,
  0x00, 0x00, 0x00, 0x00, 0x0c, 0x00, 0x18, 0x00, 0x14, 0x00, 0x10, 0x00,
  0x0c, 0x00, 0x04, 0x00, 0x0c, 0x00, 0x00, 0x00, 0xfc, 0x1e, 0xe5, 0x07,
  0x64, 0xea, 0xcc, 0x40, 0x02, 0x00, 0x00, 0x00, 0x02, 0x00, 0x00, 0x00,
  0x04, 0x00, 0x00, 0x00, 0x06, 0x00, 0x00, 0x00, 0x32, 0x2e, 0x31, 0x39,
  0x2e, 0x30, 0x00, 0x00, 0xae, 0xe6, 0xff, 0xff, 0x04, 0x00, 0x00, 0x00,
  0x10, 0x00, 0x00, 0x00, 0x31, 0x2e, 0x35, 0x2e, 0x30, 0x00, 0x00, 0x00,
  0x00, 0x00, 0x00, 0x00, 0x00, 0x00, 0x00, 0x00, 0xc8, 0xe1, 0xff, 0xff,
  0xcc, 0xe1, 0xff, 0xff, 0xd0, 0xe1, 0xff, 0xff, 0xd4, 0xe1, 0xff, 0xff,
  0xda, 0xe6, 0xff, 0xff, 0x04, 0x00, 0x00, 0x00, 0x00, 0x0f, 0x00, 0x00,
  0x3e, 0x4c, 0x6d, 0xbd, 0xb3, 0xfb, 0xaa, 0xbe, 0x64, 0x4b, 0x69, 0x3e,
  0x88, 0xcd, 0xbe, 0xbe, 0x23, 0x19, 0x8f, 0xbe, 0x0a, 0xf8, 0x7d, 0x3e,
  0xc1, 0xfc, 0xdf, 0xbd, 0x28, 0x2a, 0x00, 0x3e, 0x92, 0xa6, 0xbe, 0xbd,
  0x49, 0xf5, 0x8f, 0x3e, 0xe2, 0x1a, 0x4b, 0xbe, 0xae, 0x22, 0xc5, 0x3a,
  0xf1, 0x15, 0xce, 0xbe, 0xa1, 0x80, 0x0a, 0xbe, 0xaf, 0xfc, 0x70, 0x3e,
  0x61, 0x44, 0x1e, 0xbd, 0xa0, 0x44, 0x63, 0x3e, 0x66, 0x5f, 0xe4, 0x3d,
  0xe6, 0x25, 0xa7, 0x3e, 0x07, 0x42, 0x1c, 0x3e, 0xe9, 0x7d, 0x5b, 0xbe,
  0x66, 0xd8, 0xdc, 0xbe, 0x75, 0x72, 0xdf, 0x3c, 0x03, 0xd0, 0xd6, 0xbe,
  0x71, 0x8d, 0x0e, 0x3e, 0x1d, 0xec, 0x02, 0xbe, 0x70, 0x21, 0x95, 0xbd,
  0x1e, 0x2f, 0xc1, 0xbe, 0x0a, 0x72, 0xb7, 0xbd, 0xe0, 0x01, 0x7b, 0x3e,
  0xef, 0x0f, 0x81, 0xbe, 0xef, 0x08, 0x22, 0xbe, 0xc8, 0x14, 0xed, 0xbd,
  0x74, 0x84, 0x6f, 0xbe, 0xe7, 0x33, 0x27, 0x3e, 0xa6, 0x59, 0xc7, 0x3d,
  0x6e, 0xc6, 0x1a, 0x3e, 0xb1, 0xd8, 0xac, 0xbd, 0x53, 0xe3, 0x03, 0xbe,
  0x06, 0x33, 0x0c, 0x3e, 0xf2, 0x76, 0x51, 0x3e, 0xe2, 0xa0, 0xe3, 0xbd,
  0xc1, 0xed, 0x23, 0x3e, 0xc5, 0xdd, 0x4f, 0x3d, 0x33, 0x39, 0x98, 0xbc,
  0x6d, 0xef, 0x80, 0xbe, 0xb0, 0x6d, 0x89, 0x3d, 0xcc, 0x6c, 0x84, 0x3e,
  0x74, 0xe2, 0x5a, 0xbe, 0xf4, 0xf5, 0x83, 0xbe, 0x51, 0xa9, 0x8b, 0xbd,
  0xcd, 0x78, 0x8c, 0xbe, 0x39, 0x62, 0xcc, 0xbd, 0x00, 0x6c, 0x2b, 0x3e,
  0x0e, 0x21, 0x37, 0xbe, 0xca, 0x36, 0x93, 0xbe, 0x22, 0xc8, 0x4b, 0x3e,
  0x3a, 0x3f, 0x2e, 0xbe, 0x97, 0x4c, 0x30, 0xbe, 0xc1, 0xac, 0x03, 0xbe,
  0xcd, 0x73, 0xf3, 0xbd, 0x97, 0x7a, 0xad, 0xbd, 0x85, 0xd1, 0x07, 0xbe,
  0x4a, 0xc4, 0x16, 0x3e, 0x1c, 0x5e, 0x52, 0xbe, 0x49, 0x30, 0x83, 0xbe,
  0xb8, 0x5f, 0x94, 0x3e, 0xc7, 0x67, 0x18, 0x3e, 0x65, 0x6e, 0x4a, 0xbe,
  0xa8, 0x29, 0x87, 0x3e, 0xce, 0x1f, 0x0c, 0x3e, 0xc1, 0x46, 0xad, 0x3e,
  0x9b, 0x0e, 0xd1, 0x3e, 0xf6, 0xd3, 0x76, 0x3d, 0xb0, 0x2a, 0x3f, 0xbe,
  0x2c, 0xa2, 0x9a, 0xbd, 0x37, 0x1f, 0x78, 0xbe, 0xb6, 0x2c, 0x97, 0x3e,
  0xb8, 0x90, 0x0e, 0x3e, 0x24, 0xa7, 0x63, 0x3d, 0x4e, 0x42, 0x1a, 0x3c,
  0xd2, 0xf0, 0x40, 0xbe, 0x96, 0xcc, 0x52, 0x3d, 0x4f, 0xc5, 0x41, 0xbe,
  0xfe, 0x6e, 0x8b, 0xbc, 0xfa, 0xa5, 0x19, 0x3e, 0x86, 0x49, 0x0c, 0x3e,
  0x3a, 0xe0, 0xe5, 0x3d, 0x98, 0xa4, 0x4e, 0x3d, 0xe3, 0xb9, 0xd8, 0x3d,
  0x16, 0xec, 0xb4, 0x3d, 0x34, 0x37, 0x2c, 0x3e, 0x23, 0xbb, 0x82, 0x3e,
  0x2e, 0xc1, 0x3b, 0xbe, 0x86, 0x15, 0x04, 0x3e, 0xf8, 0x7c, 0x45, 0x3e,
  0x38, 0x99, 0x01, 0x3e, 0x68, 0x58, 0xf0, 0x3d, 0xfa, 0x97, 0x9e, 0x3e,
  0x02, 0x69, 0x84, 0x3e, 0x93, 0xbc, 0xae, 0x3e, 0xc6, 0x89, 0x08, 0x3e,
  0xb0, 0x6b, 0x5f, 0x3e, 0x1d, 0x39, 0xfa, 0xbd, 0x69, 0x69, 0xdc, 0x3d,
  0xd1, 0xc2, 0xc8, 0xbd, 0xad, 0x39, 0x68, 0xbe, 0xae, 0x38, 0x38, 0x3e,
  0x84, 0x07, 0xef, 0xbd, 0x8f, 0x39, 0x2e, 0x3e, 0x5d, 0x1f, 0xcd, 0x3e,
  0xc6, 0xc2, 0x74, 0x3d, 0x28, 0x9a, 0x10, 0x3e, 0xe1, 0x92, 0xd6, 0x3e,
  0xcf, 0xa1, 0xd1, 0xbd, 0x45, 0x1a, 0x89, 0x3d, 0x89, 0x33, 0x4d, 0x3b,
  0x0f, 0xf2, 0x71, 0xbc, 0x57, 0x7a, 0x70, 0x3e, 0xe2, 0x74, 0x1d, 0x3c,
  0x48, 0x7a, 0xb3, 0x3e, 0x1b, 0x8c, 0x0f, 0xbd, 0x33, 0x87, 0xac, 0x3d,
  0x03, 0x89, 0xe3, 0x3c, 0x0c, 0xa4, 0x3c, 0x3e, 0x64, 0xab, 0xe2, 0x3d,
  0xcf, 0xaa, 0x99, 0xbd, 0xd1, 0x4a, 0xb5, 0x3e, 0x3c, 0xb9, 0x97, 0xbd,
  0xf6, 0xbd, 0x20, 0xbe, 0x13, 0xfe, 0x71, 0xbd, 0x88, 0x2c, 0x1d, 0x3e,
  0x57, 0xdc, 0x72, 0x3e, 0x82, 0xc5, 0xc2, 0x3d, 0x3c, 0xd9, 0x21, 0x3e,
  0xbe, 0x5d, 0x80, 0xbe, 0x7a, 0x23, 0x8b, 0xbe, 0x5d, 0xfc, 0x85, 0x3d,
  0x7b, 0xb5, 0x18, 0xbe, 0x23, 0xeb, 0x93, 0xbc, 0x24, 0x8c, 0x77, 0x3d,
  0xb2, 0x17, 0x5b, 0xbd, 0xc1, 0x67, 0x2b, 0xbe, 0x9d, 0xa5, 0x6c, 0x3e,
  0x76, 0xba, 0x8c, 0x3d, 0x73, 0x57, 0x60, 0x3e, 0x68, 0xab, 0x4c, 0xbd,
  0x8a, 0x61, 0xe9, 0xbc, 0x16, 0x28, 0xca, 0x3d, 0x89, 0x14, 0xfd, 0xbd,
  0x53, 0x84, 0x8c, 0xbd, 0xb2, 0x99, 0x0f, 0x3e, 0xff, 0x4f, 0xf3, 0x3d,
  0x67, 0xe6, 0xc1, 0xbd, 0x10, 0x91, 0x23, 0xbe, 0xf3, 0x56, 0x54, 0x3e,
  0x49, 0x1b, 0x2f, 0xbe, 0x1c, 0xff, 0x20, 0xbe, 0x98, 0x6f, 0xea, 0xbd,
  0xcc, 0x2c, 0x50, 0xbe, 0x9d, 0xa1, 0x19, 0x3e, 0x33, 0x65, 0x4b, 0xbe,
  0xee, 0x3e, 0x56, 0x3e, 0x19, 0xa5, 0xce, 0x3d, 0x26, 0x43, 0xe9, 0x3d,
  0x91, 0xea, 0x3a, 0xbe, 0x40, 0x51, 0x05, 0x3e, 0x75, 0x8d, 0xdf, 0x3d,
  0xdc, 0xf5, 0x98, 0xbd, 0x22, 0x53, 0x01, 0xbe, 0x50, 0x93, 0x37, 0x3e,
  0xc3, 0x4c, 0x58, 0x3e, 0xa7, 0x1b, 0x0d, 0x3d, 0x49, 0x01, 0x61, 0x3e,
  0x42, 0x57, 0x83, 0x3e, 0xf9, 0xeb, 0x4d, 0x3e, 0xd7, 0xac, 0xea, 0x3d,
  0x92, 0xa6, 0x89, 0x3e, 0x9b, 0x8f, 0x96, 0x3e, 0xd0, 0x2f, 0x71, 0xbe,
  0x49, 0x28, 0x6f, 0xbe, 0x67, 0xd0, 0xa1, 0xbe, 0xb4, 0x1e, 0x47, 0xbe,
  0xf7, 0x11, 0x71, 0xbe, 0x0a, 0x82, 0x08, 0x3c, 0xc9, 0x11, 0x9b, 0x3e,
  0x7a, 0xb2, 0x94, 0xbe, 0x86, 0xbe, 0xbd, 0x3d, 0x86, 0xa8, 0x34, 0x3e,
  0x97, 0x14, 0x84, 0xbc, 0xd7, 0x90, 0x83, 0xbe, 0xf2, 0x01, 0xcf, 0xbe,
  0x01, 0xf9, 0x10, 0x3e, 0x35, 0xb6, 0x31, 0xbe, 0x78, 0x9e, 0x50, 0xbe,
  0x39, 0x7f, 0xe1, 0xbb, 0x50, 0x17, 0xfb, 0xbd, 0x6a, 0x75, 0xb4, 0xbd,
  0x8a, 0x85, 0x6b, 0xbe, 0x18, 0x36, 0x29, 0xbe, 0x75, 0x38, 0x87, 0xbe,
  0x05, 0xa7, 0x33, 0x3e, 0xed, 0x9f, 0xcb, 0x3d, 0x59, 0x5f, 0x00, 0x3e,
  0xc6, 0xf2, 0x83, 0x3e, 0xee, 0xa8, 0xd4, 0xbd, 0x6b, 0xc8, 0x09, 0xbe,
  0x94, 0xc7, 0x09, 0x3e, 0x0c, 0xec, 0xfc, 0xbc, 0x0c, 0x38, 0x04, 0xbe,
  0xdb, 0x45, 0x87, 0x3e, 0xba, 0x6f, 0x54, 0xbd, 0xc7, 0x3e, 0x9e, 0xbe,
  0x48, 0x8c, 0x66, 0x3d, 0x9c, 0xb0, 0x0d, 0xbe, 0x24, 0x5a, 0xbd, 0xbe,
  0x7f, 0x9c, 0x94, 0xbe, 0xa6, 0x1e, 0x39, 0x3e, 0x6d, 0xf8, 0x71, 0xbe,
  0xbc, 0xa9, 0xdd, 0xbd, 0x44, 0xd3, 0x21, 0x3e, 0x9e, 0x2a, 0x67, 0xbd,
  0xe7, 0x16, 0x62, 0x3e, 0x4b, 0x60, 0x9d, 0x3d, 0x36, 0xcc, 0x28, 0xbe,
  0xd1, 0x33, 0x17, 0x3d, 0x5e, 0x2d, 0xa7, 0xbd, 0x2b, 0x09, 0x17, 0x3d,
  0x6c, 0x85, 0x92, 0xbe, 0x53, 0xb5, 0x8a, 0x3d, 0xdc, 0x86, 0x95, 0xbd,
  0x0f, 0xe4, 0x10, 0x3e, 0x03, 0x1a, 0x5d, 0xbd, 0xa9, 0xce, 0x99, 0xbd,
  0x1b, 0xa3, 0xcc, 0x3e, 0xed, 0x2b, 0x1b, 0x3e, 0x20, 0x37, 0xff, 0x3b,
  0x9b, 0x1b, 0xca, 0x3e, 0xd9, 0x13, 0xf3, 0xbd, 0x27, 0x27, 0x77, 0xbe,
  0x9e, 0xb1, 0xb0, 0x3e, 0xe6, 0xb8, 0x7d, 0x3e, 0x7d, 0x7f, 0xf5, 0x3e,
  0xa3, 0x91, 0xd3, 0xbd, 0x52, 0xac, 0x61, 0x3e, 0xd0, 0x8f, 0x0c, 0x3e,
  0xbc, 0xcb, 0xc7, 0x3e, 0xe1, 0xa0, 0xb0, 0x3e, 0x0f, 0x5c, 0x9a, 0xbd,
  0x5d, 0xef, 0xf8, 0x3d, 0xb1, 0x99, 0xd9, 0xbc, 0xce, 0xe3, 0xa2, 0x3d,
  0xd2, 0x2a, 0x80, 0x3e, 0x43, 0xd9, 0xe1, 0xbd, 0xa8, 0x18, 0xa9, 0x3d,
  0xc0, 0x6d, 0xb1, 0x3e, 0x24, 0x84, 0x33, 0x3d, 0xfd, 0xc4, 0x24, 0xbe,
  0x83, 0x96, 0xe0, 0x3d, 0x15, 0x1b, 0x6c, 0xbe, 0x25, 0x6f, 0xc8, 0x3e,
  0xe0, 0xeb, 0x47, 0x3e, 0x60, 0xef, 0xab, 0x3e, 0x9a, 0xf3, 0x98, 0x3e,
  0xe9, 0x47, 0xb8, 0x3e, 0xcf, 0xf2, 0x1c, 0xbe, 0x81, 0x81, 0xce, 0x3e,
  0xe6, 0x3a, 0x96, 0x3e, 0x61, 0x2f, 0x46, 0xbe, 0x74, 0x79, 0xd4, 0x3d,
  0x16, 0x48, 0x5e, 0x3e, 0xe4, 0xab, 0xf7, 0xbe, 0xfe, 0x61, 0x11, 0x3e,
  0x13, 0x6b, 0x27, 0xbe, 0x97, 0x79, 0xca, 0xbd, 0xc1, 0x9b, 0xde, 0xbd,
  0x29, 0xc9, 0x84, 0xbe, 0x5d, 0x28, 0xe0, 0xbd, 0xf2, 0x20, 0xc1, 0xbd,
  0x0b, 0xdb, 0x38, 0xbe, 0xac, 0x78, 0xe3, 0xbe, 0x15, 0xae, 0x11, 0x3e,
  0x8c, 0x3c, 0x12, 0x3e, 0x86, 0x98, 0xa9, 0xbe, 0xde, 0xba, 0x4d, 0xbe,
  0xe3, 0xe9, 0x3d, 0x3e, 0xf0, 0xf1, 0x86, 0x3e, 0xb3, 0xfc, 0x16, 0x3e,
  0x33, 0xe2, 0x4c, 0x3e, 0xdc, 0x72, 0x95, 0xbe, 0x2e, 0x59, 0x1e, 0xbe,
  0x52, 0xda, 0xb2, 0xbe, 0x7b, 0x47, 0xc2, 0x3d, 0xbb, 0x87, 0xc9, 0xbe,
  0x88, 0x8f, 0x8d, 0x3e, 0xa2, 0xfe, 0xfa, 0xbd, 0xe7, 0x14, 0x77, 0x3e,
  0xb5, 0x46, 0x08, 0x3e, 0xb8, 0x52, 0x72, 0xbd, 0x4c, 0x52, 0x82, 0x3d,
  0x3a, 0x51, 0xf3, 0x3d, 0xbc, 0xfe, 0x6e, 0xbc, 0xcb, 0x5c, 0x80, 0xbe,
  0xfe, 0x2a, 0xec, 0x3d, 0xe0, 0x4c, 0x98, 0xbe, 0xd3, 0x0f, 0x5d, 0x3e,
  0x3f, 0xc7, 0x31, 0xbe, 0x43, 0xd9, 0x0e, 0x3e, 0xc2, 0x2a, 0x32, 0xbe,
  0x1c, 0xd0, 0x5c, 0xbe, 0xce, 0x13, 0x4a, 0xbe, 0x32, 0xa5, 0x6b, 0x3e,
  0xec, 0x14, 0xfb, 0x3c, 0x57, 0xfa, 0x6f, 0xbe, 0x93, 0x2c, 0x4c, 0xbe,
  0x8d, 0xbf, 0x16, 0x3e, 0x5c, 0x50, 0x25, 0x3e, 0xdb, 0xe3, 0xab, 0xbe,
  0x87, 0x0f, 0x86, 0x3e, 0xbe, 0x16, 0x64, 0xbe, 0x94, 0xb9, 0x9c, 0xbd,
  0x61, 0x8c, 0x27, 0x3d, 0x7a, 0xe1, 0x34, 0xbe, 0xe3, 0x53, 0x83, 0xbd,
  0x79, 0xaa, 0x65, 0xbe, 0x8d, 0xd0, 0xa2, 0x3e, 0xf3, 0x78, 0x28, 0xbe,
  0x76, 0xe3, 0xba, 0xbe, 0x62, 0x86, 0x94, 0xbb, 0x68, 0x83, 0x86, 0x3e,
  0x32, 0x62, 0x6c, 0xbd, 0x7f, 0x72, 0x5c, 0xbe, 0x02, 0xc5, 0x9c, 0xbe,
  0x6f, 0xd8, 0x37, 0x3e, 0x1a, 0x7f, 0x70, 0x3c, 0x75, 0x1d, 0x18, 0x3e,
  0xf8, 0xa2, 0x56, 0xbe, 0xcf, 0x74, 0x7c, 0x3d, 0x6e, 0xf7, 0xc6, 0x3d,
  0xf7, 0xdf, 0xc7, 0x3c, 0xce, 0x37, 0xa5, 0x3e, 0xea, 0x09, 0xb0, 0x3e,
  0x38, 0x28, 0x47, 0x3e, 0x72, 0x2b, 0xc3, 0x3c, 0x0b, 0xe8, 0x01, 0xbe,
  0x54, 0x26, 0x47, 0x3d, 0x95, 0x1f, 0xf8, 0xbd, 0xd6, 0x98, 0x19, 0x3e,
  0xf9, 0x91, 0x0a, 0xbe, 0x9e, 0x91, 0x29, 0xbe, 0x28, 0x97, 0xf0, 0xbc,
  0xdf, 0x0e, 0x95, 0xbe, 0xe4, 0xe1, 0xb9, 0xbc, 0xca, 0xd4, 0x14, 0xbe,
  0x1b, 0xe5, 0x78, 0xbb, 0xc6, 0x76, 0xef, 0x3d, 0x5e, 0xb1, 0x7c, 0xbe,
  0x86, 0x64, 0x78, 0x3e, 0xec, 0x74, 0x39, 0x3e, 0x40, 0x31, 0x20, 0x3d,
  0xf7, 0x1d, 0xc1, 0x3e, 0xf7, 0xcd, 0xa1, 0x3e, 0x9e, 0x73, 0xc2, 0x3e,
  0xe0, 0x9e, 0xd3, 0xbd, 0x7a, 0xd8, 0x4e, 0x3e, 0x42, 0xd8, 0x4e, 0x3d,
  0x3e, 0x6c, 0xb7, 0x3e, 0xcf, 0x38, 0x96, 0x3e, 0xcb, 0x05, 0xbb, 0x3e,
  0x3a, 0xbf, 0x1d, 0xbe, 0xf4, 0x38, 0x3a, 0x3e, 0x09, 0x95, 0xf9, 0xbd,
  0x87, 0x37, 0xe0, 0xbd, 0xdc, 0xc4, 0x84, 0x3e, 0xd2, 0x14, 0xec, 0x3d,
  0x19, 0xea, 0x70, 0x3e, 0xc4, 0xb6, 0x95, 0x3e, 0x9d, 0x83, 0x56, 0x3e,
  0xd4, 0xb2, 0xad, 0x3e, 0x97, 0xd0, 0x99, 0xbe, 0x09, 0x57, 0x75, 0x3e,
  0x27, 0x77, 0x38, 0xbe, 0x2e, 0x3c, 0x41, 0x3d, 0x21, 0xa9, 0x81, 0xbd,
  0x7d, 0x72, 0x91, 0x3e, 0xcd, 0x48, 0x1b, 0x3e, 0x1f, 0x6e, 0x07, 0x3e,
  0x24, 0x1e, 0x90, 0x3d, 0xec, 0x07, 0x92, 0x3e, 0xae, 0x63, 0x62, 0x3e,
  0x34, 0xee, 0x8a, 0x3e, 0xc1, 0xc2, 0x55, 0x3e, 0x61, 0x13, 0xb2, 0xbd,
  0x22, 0xfa, 0x10, 0xbe, 0x2a, 0x19, 0x8f, 0xbe, 0xdf, 0xbf, 0xd5, 0xbe,
  0xe8, 0x76, 0xb4, 0x3d, 0xc4, 0xb6, 0x3c, 0x3e, 0x6f, 0x98, 0x23, 0xbe,
  0x7d, 0xa6, 0x3f, 0x3e, 0x13, 0x56, 0x03, 0xbe, 0x76, 0xfc, 0xdc, 0xbe,
  0x0f, 0x76, 0x1e, 0xbe, 0x46, 0x0d, 0x59, 0xbe, 0x39, 0xfe, 0x0c, 0xbe,
  0xa5, 0xb9, 0x89, 0xba, 0x5c, 0xd4, 0x57, 0xbe, 0x1c, 0xa2, 0x32, 0x3c,
  0x0a, 0xda, 0x67, 0xbe, 0x9f, 0xc0, 0x6c, 0xbe, 0xf9, 0xe8, 0xb7, 0x3e,
  0x6b, 0xb4, 0xbc, 0xbd, 0x22, 0xcd, 0x7d, 0x3e, 0x02, 0x1b, 0x43, 0xbe,
  0x75, 0x54, 0x7c, 0x3e, 0x09, 0x0b, 0x96, 0xbe, 0x89, 0x6a, 0xc7, 0x3e,
  0x8b, 0x23, 0x6a, 0xbd, 0x8a, 0xfe, 0x38, 0x3e, 0x4f, 0x05, 0x61, 0xbe,
  0x4e, 0x6a, 0x24, 0xbd, 0xc0, 0xe0, 0x76, 0x3e, 0xd1, 0x0e, 0x1d, 0x3e,
  0x5c, 0xbe, 0xac, 0x3d, 0xd3, 0x9b, 0xaf, 0x3e, 0x83, 0xc9, 0x87, 0x3d,
  0x45, 0x2a, 0xcf, 0xbb, 0xe4, 0x11, 0x8f, 0x3d, 0x7c, 0xe7, 0xa5, 0xbd,
  0xc0, 0x42, 0x7b, 0xbd, 0x30, 0x79, 0x21, 0x3e, 0x01, 0xa9, 0x0c, 0xbe,
  0x19, 0x7a, 0x3d, 0xbe, 0x4c, 0x92, 0x52, 0xbe, 0x42, 0xcf, 0xf4, 0x3c,
  0x0d, 0x73, 0x3d, 0x3e, 0xb7, 0xf6, 0x9c, 0xbd, 0x9d, 0x18, 0x35, 0x3e,
  0x48, 0xc7, 0x6f, 0xbe, 0x9b, 0x71, 0xe9, 0x3d, 0xe3, 0xc1, 0x3a, 0x3c,
  0x0e, 0x48, 0xd6, 0x3d, 0xa4, 0x1b, 0x7d, 0xbd, 0x26, 0x85, 0xef, 0xbd,
  0x24, 0x8c, 0x7f, 0xbe, 0xdd, 0x62, 0x61, 0xbd, 0xc3, 0x59, 0x2c, 0x3e,
  0xe5, 0x44, 0xb1, 0xbe, 0x2c, 0x31, 0xc0, 0x3d, 0x4e, 0xff, 0x23, 0xbe,
  0x52, 0x3f, 0xca, 0x3e, 0xe6, 0xa1, 0x3c, 0x3e, 0x4b, 0xa2, 0x98, 0x3d,
  0x9c, 0xe4, 0xe0, 0x3c, 0x51, 0xe6, 0xa3, 0x3e, 0x68, 0xdb, 0x03, 0x3e,
  0x69, 0x7b, 0x6b, 0x3e, 0xbd, 0xd0, 0x1c, 0x3d, 0x05, 0x71, 0xe3, 0xbd,
  0xf1, 0x96, 0xe6, 0xbe, 0x07, 0x40, 0xc6, 0x3e, 0xfe, 0x1c, 0x8b, 0xbe,
  0xee, 0xb2, 0x59, 0x3e, 0x8a, 0x64, 0xa3, 0xbd, 0xbd, 0xff, 0x3e, 0x3e,
  0xa0, 0x8d, 0x73, 0x3e, 0x9a, 0x68, 0x69, 0x3e, 0x02, 0xf6, 0x59, 0xbe,
  0xbe, 0x0d, 0x0e, 0xbd, 0x4a, 0xa2, 0x0d, 0x3e, 0xf5, 0x5a, 0xcd, 0x3e,
  0x1b, 0xca, 0x17, 0x3e, 0x8d, 0xa7, 0x82, 0x3d, 0x16, 0x7b, 0xba, 0xbd,
  0x1d, 0xdd, 0x3d, 0x3e, 0x1d, 0x85, 0x2d, 0x3e, 0xd5, 0xfd, 0x06, 0x3c,
  0xcb, 0xc3, 0x90, 0x3d, 0x40, 0x20, 0x7b, 0xbe, 0x4f, 0x90, 0x38, 0xbe,
  0x04, 0x4f, 0xdc, 0x3d, 0x8d, 0xb0, 0x38, 0xbe, 0xa1, 0xcd, 0x0a, 0xbe,
  0xb1, 0xae, 0x3f, 0x3e, 0x74, 0x11, 0x5c, 0x3e, 0x9c, 0x79, 0x69, 0xbe,
  0xc3, 0x44, 0x8e, 0xbe, 0xbc, 0x71, 0x5a, 0xbe, 0x2e, 0xec, 0xc2, 0x3a,
  0xc8, 0x3f, 0x44, 0x3e, 0x51, 0xa6, 0x1e, 0xbe, 0xc4, 0xb2, 0x7b, 0xbe,
  0x1b, 0x5e, 0x88, 0xbe, 0xce, 0xd0, 0x85, 0xbe, 0x5f, 0xff, 0x76, 0x3e,
  0x8d, 0xff, 0xb2, 0x3e, 0xfd, 0x67, 0xa9, 0xbd, 0xeb, 0x31, 0x8c, 0xbe,
  0xed, 0x3c, 0x2c, 0x3e, 0x96, 0x0c, 0xab, 0xbc, 0x9c, 0xcc, 0x8f, 0xbe,
  0xb0, 0xfb, 0x66, 0xbe, 0x0b, 0xd8, 0xcd, 0xbe, 0xff, 0xa8, 0x98, 0xbe,
  0xff, 0xb6, 0xe2, 0x3d, 0x6c, 0x04, 0x72, 0xbd, 0x78, 0x42, 0xfb, 0x3d,
  0x65, 0xe0, 0xa7, 0xbe, 0xcd, 0xd1, 0x5e, 0xbd, 0xf2, 0x62, 0xfc, 0x3c,
  0x96, 0x9a, 0x87, 0xbe, 0x4c, 0xd2, 0x95, 0xbd, 0x1d, 0xb7, 0xb7, 0x3d,
  0x7e, 0x21, 0x89, 0xbe, 0xe0, 0x47, 0x97, 0xbe, 0x47, 0xa3, 0x0b, 0xbd,
  0x08, 0xe6, 0x36, 0x3e, 0xd5, 0x26, 0x18, 0x3b, 0xfe, 0xae, 0x04, 0xbd,
  0xad, 0x2e, 0xcc, 0x3d, 0x18, 0xb8, 0xa7, 0x3d, 0x40, 0x6a, 0x73, 0x3d,
  0xd4, 0xca, 0xb0, 0x3d, 0x24, 0xbd, 0x0d, 0x3e, 0x66, 0x58, 0x82, 0xbe,
  0x51, 0xa7, 0xa0, 0x3e, 0x19, 0xa5, 0x4b, 0xbe, 0x0f, 0x91, 0x96, 0xbe,
  0xf1, 0xc9, 0x20, 0xbc, 0x8d, 0x07, 0x5a, 0x3d, 0x24, 0xa4, 0xab, 0xbe,
  0x91, 0x5b, 0xda, 0x3d, 0xe1, 0x29, 0x08, 0xbe, 0xae, 0x19, 0xbc, 0xbe,
  0x80, 0x7e, 0xc9, 0xbe, 0x96, 0x8d, 0x14, 0xbd, 0xed, 0xf5, 0x84, 0x3d,
  0x7e, 0x8f, 0xc4, 0xbe, 0x67, 0xd9, 0x13, 0x3e, 0xd2, 0x47, 0x35, 0x3e,
  0x66, 0xc8, 0x7d, 0xbd, 0x89, 0x4a, 0x82, 0xbe, 0xb5, 0xe1, 0x77, 0xbb,
  0xd6, 0x05, 0xae, 0x3d, 0x38, 0x00, 0x0d, 0x3e, 0x60, 0x9b, 0x8b, 0xbd,
  0xcd, 0x2a, 0x2d, 0x3e, 0x9f, 0xd2, 0x4a, 0xbd, 0x62, 0xb6, 0x56, 0xbe,
  0xcd, 0xbb, 0x72, 0x3e, 0xa8, 0xe5, 0x83, 0x3d, 0x06, 0xcd, 0x9f, 0xbe,
  0x79, 0x2b, 0x5a, 0x3e, 0x02, 0xde, 0xec, 0x3c, 0x0a, 0xb2, 0x8d, 0xbd,
  0x21, 0x24, 0xd8, 0x3d, 0x57, 0x30, 0x28, 0x3e, 0x02, 0x56, 0x2c, 0xbe,
  0xc2, 0x97, 0x78, 0x3e, 0xd7, 0x92, 0x9c, 0xbd, 0x4c, 0xa2, 0x53, 0xbe,
  0x21, 0xe2, 0x8b, 0x3e, 0x5f, 0xfa, 0x3d, 0xbe, 0x93, 0x29, 0x5e, 0xbe,
  0xfa, 0x82, 0x65, 0xbe, 0x94, 0xf4, 0x4f, 0x3d, 0x9e, 0xe5, 0xbc, 0xbe,
  0xfc, 0xb3, 0x01, 0x3e, 0x87, 0x1a, 0x2a, 0x3e, 0xc6, 0x42, 0x4a, 0x3d,
  0xb5, 0x26, 0x30, 0xbe, 0x63, 0x6c, 0x79, 0x3e, 0x1e, 0x88, 0x0d, 0xbe,
  0x22, 0x35, 0x47, 0xbe, 0x39, 0x5c, 0x0e, 0xbe, 0xd2, 0x97, 0x22, 0x3d,
  0xb9, 0xf0, 0x9a, 0x3d, 0x73, 0xfb, 0x99, 0xbd, 0x28, 0xe9, 0x02, 0xbe,
  0x07, 0x09, 0x27, 0x3d, 0x36, 0xf6, 0x88, 0xbe, 0x05, 0x2b, 0x38, 0x3e,
  0x90, 0x83, 0x8f, 0xbe, 0x8c, 0x9b, 0x8c, 0xbe, 0x04, 0x27, 0x62, 0xbe,
  0xb9, 0x56, 0x1a, 0x3e, 0x32, 0x6f, 0xe7, 0xbd, 0x48, 0x52, 0x69, 0x3e,
  0x2d, 0x3a, 0x89, 0x3e, 0xad, 0x86, 0x5d, 0x3e, 0x90, 0xeb, 0xdf, 0xbc,
  0x8b, 0xd7, 0x55, 0x3d, 0xb3, 0x28, 0xa8, 0x3c, 0xdc, 0xe0, 0x8d, 0x3d,
  0xb1, 0x37, 0x5c, 0x3d, 0xad, 0x3f, 0x6f, 0xbd, 0xe4, 0xa9, 0x4d, 0x3e,
  0x63, 0x86, 0x32, 0xbe, 0xbf, 0x4e, 0x8b, 0xbe, 0x51, 0x10, 0x65, 0x3e,
  0xa5, 0xf3, 0x8e, 0xbd, 0x22, 0xd5, 0xa6, 0xbe, 0x7e, 0xe6, 0x34, 0xbe,
  0x82, 0x4b, 0x80, 0xbd, 0xb6, 0x6e, 0x94, 0x3e, 0x0c, 0xfc, 0x7d, 0xbe,
  0x72, 0x65, 0x98, 0xbc, 0xc7, 0x8d, 0x8a, 0xbd, 0x00, 0xe2, 0x8d, 0xbe,
  0x93, 0xa9, 0x60, 0xbe, 0x66, 0x0e, 0xb1, 0xbe, 0x42, 0xb5, 0x68, 0xbe,
  0x1d, 0x68, 0xa9, 0xbd, 0xe6, 0x15, 0xb3, 0xbe, 0x5d, 0xb8, 0x0f, 0xbd,
  0x32, 0x0e, 0x3b, 0x3e, 0x42, 0xc8, 0x9b, 0x3d, 0x23, 0x67, 0x2e, 0x3d,
  0x29, 0xe3, 0x84, 0x3e, 0xe9, 0x65, 0x54, 0xbd, 0x2b, 0xa7, 0x1a, 0x3e,
  0xe0, 0x13, 0xd3, 0xbe, 0x33, 0x93, 0xf5, 0xbd, 0xf8, 0x25, 0xff, 0x3d,
  0xbe, 0x71, 0x20, 0xbe, 0xc0, 0xe2, 0x20, 0xbd, 0x29, 0x82, 0x46, 0x3e,
  0x92, 0xc7, 0x4d, 0xbe, 0xf9, 0x97, 0x10, 0xbe, 0xe0, 0x9f, 0x52, 0x3e,
  0x6a, 0x61, 0x2c, 0xbc, 0xe5, 0x09, 0x1e, 0xbe, 0x5c, 0x65, 0x61, 0xbe,
  0x1b, 0xdd, 0x1a, 0xbd, 0x6a, 0x9a, 0x3d, 0x3d, 0x8e, 0x85, 0x56, 0x3e,
  0x20, 0x14, 0x8a, 0xbe, 0xb9, 0x9f, 0x5b, 0x3e, 0x10, 0x81, 0x51, 0xbe,
  0x5e, 0x84, 0x81, 0xbe, 0x6d, 0x96, 0xa5, 0x3b, 0x52, 0xd5, 0x79, 0x3e,
  0x89, 0x82, 0xd1, 0xbe, 0xa4, 0x04, 0x97, 0xbe, 0x89, 0xc9, 0xcb, 0xbe,
  0xee, 0x91, 0x9e, 0x3d, 0x40, 0xd8, 0x89, 0x3e, 0x96, 0x5c, 0x58, 0x3e,
  0x65, 0x68, 0xec, 0x3d, 0xb8, 0xeb, 0xf2, 0x3d, 0xec, 0x3f, 0x77, 0xbe,
  0xb7, 0xd1, 0x74, 0x3b, 0x2f, 0x75, 0x7f, 0x3e, 0x07, 0x81, 0x88, 0xbd,
  0xd8, 0x20, 0xa8, 0xbe, 0x36, 0x8a, 0x6a, 0x3e, 0x64, 0xfe, 0xb2, 0xbc,
  0xe7, 0x12, 0x56, 0xbe, 0xfb, 0x97, 0x60, 0xbe, 0x43, 0x39, 0x5f, 0xbd,
  0xa1, 0x24, 0x3a, 0xbe, 0xff, 0x5d, 0x82, 0xbd, 0xeb, 0x76, 0xc8, 0xbd,
  0x57, 0xe2, 0xb9, 0xbe, 0x5b, 0x7f, 0x01, 0x3d, 0xb8, 0x51, 0x1d, 0x3d,
  0xd9, 0x6a, 0xe5, 0xbd, 0x4e, 0xc9, 0x5e, 0xbe, 0xf2, 0x05, 0x10, 0xbe,
  0x08, 0x4a, 0xef, 0x3d, 0xef, 0xd5, 0x89, 0xbe, 0x5f, 0x69, 0x41, 0xbe,
  0x5e, 0x22, 0x34, 0x3e, 0xd3, 0x87, 0x06, 0x3d, 0xfa, 0x48, 0x08, 0x3e,
  0x27, 0x02, 0x8f, 0x3e, 0x1e, 0x08, 0x67, 0x3e, 0xd6, 0x36, 0xdf, 0xbd,
  0xc2, 0xd7, 0x0e, 0xbd, 0x5d, 0xbd, 0x53, 0x3e, 0x99, 0xf4, 0x41, 0x3e,
  0xaf, 0xbc, 0x89, 0xbe, 0x7a, 0x7d, 0x96, 0xbb, 0xde, 0xf3, 0x2a, 0xbe,
  0x17, 0x76, 0x04, 0x3e, 0xaf, 0x12, 0xaf, 0xbc, 0xa8, 0xbe, 0x6b, 0xbe,
  0x57, 0xba, 0x47, 0xbd, 0x01, 0x5e, 0xd4, 0xbd, 0x52, 0x9a, 0x82, 0x3e,
  0x56, 0x68, 0xdd, 0xbd, 0x7c, 0x2a, 0x2f, 0xbe, 0x13, 0x2b, 0x05, 0xbe,
  0x32, 0x40, 0xa7, 0xbe, 0x57, 0x81, 0x87, 0x3e, 0x9e, 0xe1, 0x5c, 0x3e,
  0x0f, 0x7f, 0x3a, 0x3e, 0x7e, 0xff, 0xb4, 0xb9, 0xf3, 0x64, 0x01, 0xbd,
  0xa5, 0x7e, 0x15, 0xbe, 0xa8, 0x25, 0xf6, 0x3d, 0xa4, 0xa2, 0x73, 0xbe,
  0x6f, 0xc4, 0x4a, 0xbe, 0x4c, 0x63, 0xdb, 0xbd, 0xe4, 0x6c, 0x3a, 0xbe,
  0x39, 0xf6, 0x56, 0x3e, 0x41, 0x55, 0x58, 0x3e, 0x70, 0x8c, 0x31, 0x3e,
  0xab, 0x80, 0xf6, 0xbd, 0x0f, 0xf4, 0x5e, 0xbe, 0xdc, 0x9a, 0x67, 0xbe,
  0x53, 0x04, 0xd6, 0xbe, 0xc2, 0x47, 0x50, 0xbe, 0x09, 0x5e, 0xad, 0x3d,
  0x8e, 0x8f, 0x3f, 0xbe, 0x45, 0x84, 0x49, 0xbd, 0x2f, 0xdf, 0x96, 0xbe,
  0x7e, 0xd4, 0x76, 0x3e, 0x12, 0xfc, 0xff, 0xbd, 0x14, 0xdf, 0xbd, 0x3d,
  0x4d, 0x4d, 0xa7, 0x3d, 0x3a, 0x81, 0x03, 0xbe, 0x13, 0xa4, 0xee, 0x3d,
  0x03, 0x36, 0x29, 0xbe, 0xe9, 0x67, 0xb7, 0x3d, 0x3e, 0xfc, 0x88, 0xbe,
  0x16, 0x8c, 0x4f, 0xbd, 0x0f, 0xbb, 0x94, 0xbd, 0x44, 0x12, 0x50, 0x3e,
  0xc3, 0x6a, 0xed, 0x3d, 0x83, 0xfa, 0x13, 0xbd, 0xb1, 0xf5, 0x30, 0x3e,
  0x6f, 0x06, 0xb0, 0xbd, 0x31, 0xf9, 0x8a, 0x3d, 0xe7, 0x1a, 0x4d, 0x3d,
  0x08, 0x2c, 0x9b, 0x3e, 0x21, 0x04, 0xfc, 0xbd, 0x32, 0xa3, 0x84, 0x3e,
  0x2e, 0x2b, 0x9d, 0xbc, 0x3d, 0x9e, 0x5c, 0xbe, 0x37, 0xf0, 0x29, 0x3e,
  0x7a, 0xa5, 0x24, 0xbd, 0x16, 0x1f, 0x5f, 0xbe, 0x36, 0xfa, 0xab, 0xbd,
  0xe3, 0x1b, 0x91, 0x3c, 0xad, 0xa1, 0x23, 0xbe, 0xb7, 0x01, 0xba, 0xbe,
  0xca, 0x5a, 0x95, 0xbe, 0xba, 0x28, 0x4e, 0xbe, 0xbf, 0xf5, 0x9e, 0xbe,
  0xca, 0x4d, 0x47, 0x3e, 0xf6, 0xfe, 0x70, 0x3d, 0xe0, 0x77, 0xa1, 0xbe,
  0x0a, 0xe9, 0x1c, 0x3e, 0xad, 0x2a, 0xb4, 0xbe, 0x3d, 0x07, 0xa9, 0xbd,
  0xe0, 0x69, 0x4d, 0x3e, 0x05, 0x59, 0xc6, 0x3d, 0xa7, 0x2d, 0x87, 0x3d,
  0x27, 0xc9, 0x24, 0x3e, 0x93, 0x77, 0x92, 0xbd, 0x84, 0x85, 0x0f, 0xbd,
  0xd2, 0x99, 0x3a, 0x3d, 0xef, 0xc5, 0x99, 0xbe, 0x68, 0xc5, 0x02, 0x3e,
  0xa8, 0xae, 0x7c, 0xbd, 0xee, 0x2f, 0xd4, 0x3d, 0xe2, 0x15, 0xa6, 0x3d,
  0xcf, 0x19, 0x8a, 0x3e, 0xb3, 0x63, 0x26, 0x3d, 0x07, 0x59, 0xba, 0xbe,
  0xe0, 0x51, 0x78, 0x3e, 0x03, 0x2a, 0x26, 0xbe, 0xc1, 0x4d, 0xa1, 0xbd,
  0x37, 0x95, 0xe2, 0xbd, 0xaa, 0x4d, 0xdc, 0x3d, 0xa6, 0x60, 0xd4, 0xbd,
  0x73, 0x8b, 0xb7, 0xbe, 0x68, 0x54, 0x83, 0xbe, 0x18, 0xa3, 0x8d, 0x3e,
  0x78, 0x5f, 0x78, 0xbe, 0xd3, 0x92, 0x98, 0x3e, 0x6c, 0x8f, 0xa5, 0x3e,
  0x0f, 0x24, 0x39, 0xbe, 0x36, 0x46, 0x47, 0x3e, 0xb1, 0x26, 0x34, 0x3e,
  0x32, 0x3e, 0xbb, 0x3e, 0x2e, 0x5a, 0x7b, 0x3e, 0xed, 0x6e, 0x19, 0xbe,
  0xaf, 0xf7, 0x5f, 0xbe, 0xcd, 0xdd, 0x2c, 0xbe, 0xc8, 0xbc, 0xb2, 0xbe,
  0x00, 0xee, 0x58, 0xbd, 0x7c, 0x24, 0x38, 0xbe, 0x23, 0x6d, 0x48, 0xbe,
  0x64, 0xd6, 0x76, 0xbe, 0x1f, 0x7f, 0x87, 0xbd, 0xae, 0x3d, 0xa9, 0xbe,
  0xd6, 0xbc, 0x22, 0xbd, 0xa5, 0x31, 0x1a, 0xbe, 0xfe, 0xac, 0x71, 0x3e,
  0x25, 0x62, 0xb5, 0x3e, 0xa4, 0x4d, 0x15, 0x3e, 0x04, 0xac, 0xae, 0xbd,
  0xdd, 0x55, 0x0f, 0xbb, 0x53, 0xd2, 0x62, 0x3e, 0x22, 0xf7, 0xb5, 0x3e,
  0x20, 0x1d, 0xcf, 0x3e, 0x4a, 0x69, 0x9d, 0x3e, 0xce, 0x40, 0x22, 0xbe,
  0x62, 0xc8, 0x90, 0xbe, 0xae, 0xce, 0xb0, 0xbe, 0xf9, 0xda, 0xe9, 0x3d,
  0x42, 0x0a, 0xbc, 0x3d, 0xc9, 0x79, 0xc8, 0x3d, 0xb8, 0xf2, 0x01, 0x3e,
  0x2b, 0x39, 0x46, 0xbc, 0x60, 0xef, 0x0f, 0x3e, 0x1a, 0x65, 0x8e, 0x3d,
  0xe4, 0xaf, 0x5e, 0xbe, 0xa4, 0x45, 0x87, 0xbe, 0xb5, 0xef, 0x8c, 0x3a,
  0x11, 0xcc, 0x3c, 0x3d, 0xb0, 0xce, 0x9d, 0xbe, 0x0b, 0x83, 0x18, 0xbe,
  0xb3, 0xb5, 0x17, 0x3d, 0x69, 0x58, 0x7c, 0x3e, 0x49, 0x71, 0x81, 0x3d,
  0x56, 0x42, 0xe9, 0xbc, 0x69, 0x93, 0x3f, 0x3c, 0x0b, 0x8d, 0x1e, 0x3d,
  0xa0, 0xe2, 0x1e, 0xbe, 0x44, 0x01, 0x8e, 0x3d, 0x90, 0x3a, 0xc9, 0xbe,
  0x4a, 0xaf, 0xd5, 0xbd, 0xe9, 0xcc, 0x16, 0x3e, 0x90, 0x99, 0xa5, 0x3d,
  0xdc, 0x63, 0x7a, 0xbe, 0x23, 0x17, 0xdd, 0xbd, 0xaa, 0xde, 0x6a, 0xbe,
  0x6d, 0xbb, 0x10, 0xbe, 0xc7, 0xe3, 0x80, 0x3d, 0x49, 0xa8, 0xac, 0x3d,
  0x19, 0x8f, 0x84, 0xbe, 0x60, 0x46, 0x97, 0xbe, 0xc6, 0x7d, 0xec, 0xbd,
  0x5a, 0x82, 0xb6, 0xbe, 0x05, 0xb2, 0x1f, 0x3d, 0xec, 0xa8, 0xdf, 0xba,
  0xa7, 0x7a, 0x49, 0xbe, 0x43, 0x99, 0x9d, 0x3c, 0xf3, 0xe9, 0x36, 0xbe,
  0xc4, 0x00, 0xc3, 0xbe, 0x5e, 0xd3, 0x0d, 0xbf, 0x6f, 0xc9, 0x11, 0xbe,
  0xd7, 0x96, 0x9a, 0x3d, 0xba, 0xf1, 0x7b, 0xbc, 0x8f, 0x7d, 0x00, 0x3d,
  0x86, 0x53, 0x80, 0x3e, 0xee, 0x61, 0x70, 0xbe, 0x03, 0x4c, 0xae, 0xbe,
  0x6c, 0x28, 0x1a, 0xbe, 0x9c, 0x85, 0xce, 0xbd, 0xae, 0x53, 0xbb, 0xbe,
  0x8c, 0x51, 0x79, 0xbe, 0xd3, 0xcf, 0x07, 0x3d, 0x8a, 0x2a, 0x3f, 0x3d,
  0x18, 0x1b, 0xbd, 0xbe, 0xe1, 0x08, 0x34, 0xbe, 0x45, 0xb5, 0x47, 0x3d,
  0x32, 0xa0, 0x94, 0x3e, 0x70, 0xf2, 0x27, 0xbe, 0x6c, 0xd6, 0x39, 0xbe,
  0x61, 0xae, 0x24, 0xbe, 0x88, 0x3a, 0x62, 0xbd, 0xcb, 0x7d, 0x10, 0xbe,
  0x24, 0xce, 0x84, 0xbe, 0x54, 0x2d, 0x6d, 0x3c, 0x8a, 0x3d, 0xc8, 0x3d,
  0x47, 0xcb, 0x99, 0xbe, 0xcb, 0x1a, 0x4c, 0xbe, 0xc9, 0xb1, 0xa1, 0x3d,
  0xed, 0x19, 0x11, 0xbe, 0x43, 0xd9, 0xb0, 0x3e, 0xe0, 0x41, 0x46, 0x3e,
  0xe2, 0xa0, 0x5d, 0xbd, 0xca, 0x2e, 0x41, 0x3e, 0x4a, 0x3b, 0xcf, 0xbd,
  0x0f, 0x73, 0x35, 0xbd, 0xb8, 0xbd, 0xe8, 0xbb, 0x48, 0xaf, 0x50, 0x3e,
  0xc7, 0x7e, 0xc0, 0x3e, 0xc4, 0x69, 0x41, 0x3e, 0x23, 0xca, 0x94, 0xbd,
  0xe7, 0x8e, 0x2a, 0x3e, 0x37, 0x7f, 0xb4, 0x3c, 0xf9, 0x3c, 0x31, 0x3e,
  0x54, 0x84, 0x95, 0x3e, 0x8e, 0x19, 0xfd, 0x3e, 0xd0, 0x22, 0xa0, 0xbe,
  0x0e, 0xae, 0x8a, 0xbe, 0xbc, 0x6b, 0xbd, 0xbd, 0x29, 0xf8, 0x30, 0x3e,
  0x6c, 0x7e, 0x14, 0xbd, 0x8d, 0x2a, 0xa3, 0x3e, 0x4b, 0xfe, 0x87, 0xbe,
  0xa6, 0x9e, 0x1d, 0x3e, 0xa1, 0x28, 0x23, 0x3e, 0x39, 0x11, 0xa8, 0x3e,
  0x23, 0xdc, 0x5d, 0x3d, 0x05, 0x51, 0x50, 0x3e, 0x8f, 0x4f, 0xa8, 0x3e,
  0xf1, 0x05, 0xc2, 0xbd, 0x44, 0x0c, 0xc6, 0xbd, 0xdb, 0x8e, 0x82, 0x3e,
  0xef, 0xd0, 0x9d, 0x3e, 0xb8, 0x04, 0x17, 0x3e, 0xc6, 0x31, 0x38, 0xbe,
  0x05, 0x40, 0x7a, 0xbd, 0x3a, 0x55, 0xe9, 0xbd, 0xe8, 0x7c, 0x2a, 0x3e,
  0x04, 0x5d, 0xdb, 0x3d, 0x1e, 0xdd, 0x5e, 0xbe, 0xb6, 0xd6, 0x08, 0xbe,
  0xca, 0x16, 0x73, 0x3e, 0x6f, 0x8f, 0x2c, 0x3e, 0x46, 0x5a, 0xb7, 0x3d,
  0xb8, 0x51, 0x14, 0xbe, 0xfb, 0x36, 0x01, 0xbe, 0x4c, 0x57, 0x39, 0x3d,
  0x55, 0x97, 0x42, 0xbe, 0xc0, 0xe4, 0x70, 0x3c, 0xb0, 0xf9, 0x41, 0x3e,
  0x9d, 0x49, 0x75, 0xbe, 0x2e, 0x12, 0x12, 0xbe, 0x97, 0xf7, 0xb6, 0xbd,
  0x72, 0xd9, 0x6e, 0xbe, 0xc1, 0x09, 0x9a, 0xbd, 0x95, 0x48, 0xf2, 0x3d,
  0x48, 0x6f, 0x61, 0x3e, 0xcf, 0x9f, 0x1e, 0x3e, 0x99, 0xfe, 0xbd, 0xbe,
  0xde, 0x57, 0x54, 0xbe, 0xbb, 0xce, 0xc4, 0xbe, 0xd4, 0xdc, 0x32, 0x3e,
  0x32, 0x74, 0x51, 0x3e, 0x70, 0xc3, 0x87, 0x3e, 0x7d, 0xbe, 0xcc, 0x3d,
  0xe7, 0x42, 0x2d, 0xbe, 0xa5, 0x5e, 0x35, 0x3e, 0xbb, 0xcb, 0x86, 0xbe,
  0xfb, 0xb5, 0x9d, 0xbe, 0xae, 0x52, 0x04, 0xbe, 0xe2, 0xf4, 0xc9, 0xbd,
  0x80, 0xf1, 0xf2, 0x3d, 0x39, 0x52, 0x2e, 0x3e, 0x32, 0x81, 0xa1, 0xbd,
  0x9a, 0xe5, 0x4d, 0xbd, 0xe4, 0xcf, 0x92, 0xbe, 0x57, 0xa9, 0xb2, 0xbe,
  0xe6, 0xf5, 0xff, 0xff, 0x04, 0x00, 0x00, 0x00, 0x80, 0x00, 0x00, 0x00,
  0x85, 0x08, 0xfe, 0x3d, 0x44, 0x6f, 0xb0, 0xbd, 0x81, 0x47, 0xcc, 0x3c,
  0x6a, 0x09, 0x9f, 0x3c, 0xc4, 0x3a, 0x7b, 0xb9, 0x09, 0x3c, 0x21, 0x3e,
  0x3f, 0x96, 0xa9, 0x3d, 0xd3, 0xde, 0x1c, 0x3e, 0x6e, 0x55, 0xe0, 0x3d,
  0xee, 0xaa, 0x3b, 0x3b, 0x95, 0xdc, 0x43, 0x3d, 0xec, 0x64, 0x30, 0xbd,
  0xfd, 0x9b, 0x30, 0x3e, 0x26, 0x6b, 0x8d, 0x3d, 0x57, 0xa0, 0x06, 0xbe,
  0xab, 0x08, 0x36, 0x3e, 0x34, 0x81, 0xda, 0x3d, 0xd5, 0xa7, 0x3d, 0x3d,
  0x07, 0x16, 0xa1, 0x3c, 0xae, 0xeb, 0xf6, 0xbc, 0x15, 0x7e, 0xd8, 0x3d,
  0x5d, 0x0e, 0xb8, 0x3d, 0xf6, 0xda, 0xa9, 0x3d, 0x8b, 0x29, 0xc4, 0x3d,
  0x2b, 0x4f, 0xfd, 0xbc, 0x06, 0xaf, 0xb0, 0x3d, 0x30, 0x78, 0x1b, 0x3e,
  0xba, 0x14, 0x82, 0xbd, 0x40, 0x5a, 0x25, 0x3e, 0xbc, 0x5c, 0x33, 0x3e,
  0x2e, 0xae, 0xb3, 0x3d, 0x8c, 0x28, 0xde, 0xba, 0x72, 0xf6, 0xff, 0xff,
  0x04, 0x00, 0x00, 0x00, 0x40, 0x00, 0x00, 0x00, 0x7d, 0xca, 0x6a, 0x3d,
  0x02, 0xad, 0xe4, 0x3d, 0xc1, 0x99, 0x93, 0x3d, 0x65, 0xf7, 0xbb, 0xbc,
  0x5d, 0x1e, 0xdd, 0x3d, 0x00, 0x00, 0x00, 0x00, 0xf9, 0x0a, 0x6a, 0x3c,
  0x3d, 0x83, 0xa4, 0x3c, 0x20, 0xad, 0x80, 0x3d, 0x7f, 0x9f, 0x97, 0x3d,
  0xc6, 0x38, 0x80, 0x3d, 0xf4, 0x04, 0xa7, 0x3d, 0xf2, 0x7b, 0xec, 0x3d,
  0x72, 0xef, 0x04, 0x3e, 0xf8, 0x88, 0x30, 0x3d, 0xf8, 0x12, 0xcc, 0x3d,
  0xbe, 0xf6, 0xff, 0xff, 0x04, 0x00, 0x00, 0x00, 0x08, 0x00, 0x00, 0x00,
  0xc8, 0x2e, 0x30, 0xbd, 0xc9, 0x2e, 0x30, 0x3d, 0xd2, 0xf6, 0xff, 0xff,
  0x04, 0x00, 0x00, 0x00, 0x00, 0x08, 0x00, 0x00, 0x24, 0xda, 0xcb, 0x3e,
  0x2a, 0xfa, 0x93, 0xbe, 0x7f, 0xd1, 0x0a, 0xbe, 0x0a, 0x93, 0x1d, 0xbe,
  0xa9, 0xf3, 0x88, 0x3d, 0xf4, 0x0a, 0x11, 0xbe, 0x4f, 0x09, 0x79, 0x3e,
  0x3f, 0x65, 0x3e, 0x3e, 0x90, 0x66, 0x9d, 0xbe, 0xc4, 0xbd, 0xba, 0x3b,
  0xfc, 0x28, 0x88, 0x3e, 0xe2, 0x02, 0x99, 0xbe, 0xab, 0x07, 0x53, 0x3e,
  0x9d, 0x7b, 0xed, 0x3d, 0xfd, 0xc6, 0x8f, 0x3d, 0x36, 0xf5, 0x18, 0x3e,
  0x67, 0x39, 0x02, 0x3e, 0x24, 0xc2, 0x0e, 0x3e, 0xa8, 0xaa, 0x8d, 0xbc,
  0x92, 0x8a, 0x1b, 0xbd, 0xe2, 0xc1, 0x26, 0x3e, 0xa7, 0x50, 0xff, 0x3e,
  0xeb, 0x96, 0x1f, 0xbe, 0xa2, 0xd7, 0xd5, 0xbd, 0x0f, 0xf6, 0x5d, 0x3e,
  0x6d, 0xf9, 0xb9, 0x3e, 0x14, 0x06, 0x8e, 0x3d, 0xb6, 0x21, 0x12, 0x3e,
  0xeb, 0x4e, 0xd0, 0x3e, 0xdc, 0x69, 0x0e, 0xbd, 0x3c, 0xfd, 0x5e, 0x3e,
  0x77, 0x36, 0xa5, 0x3e, 0x35, 0x10, 0x06, 0x3e, 0x40, 0x8f, 0x7a, 0xbe,
  0x3f, 0x19, 0x35, 0xbe, 0xde, 0xaa, 0xf7, 0x3d, 0x28, 0x31, 0x52, 0xbe,
  0x8b, 0x14, 0x52, 0xbe, 0xbe, 0xbc, 0xf1, 0x3b, 0x4a, 0x91, 0x78, 0xbe,
  0x84, 0xe2, 0x81, 0xbe, 0x93, 0x00, 0x85, 0x3e, 0x59, 0xb9, 0x81, 0x3e,
  0x50, 0x7c, 0x5a, 0xbe, 0xce, 0x5a, 0x51, 0x3d, 0x76, 0xde, 0x86, 0x3c,
  0x35, 0x72, 0x6c, 0xbd, 0xda, 0x0c, 0x90, 0x3c, 0x6e, 0xb4, 0x82, 0x3e,
  0x73, 0xef, 0xbe, 0x3e, 0xfa, 0xb9, 0xeb, 0x3c, 0x36, 0xcc, 0x86, 0xbd,
  0x62, 0x4f, 0x95, 0x3e, 0xc1, 0x4a, 0xe8, 0x3e, 0xde, 0x9b, 0xc5, 0x3e,
  0x07, 0x2a, 0xcc, 0x3e, 0xaf, 0xda, 0x4b, 0xbe, 0x1c, 0xf0, 0xaf, 0x3e,
  0x48, 0x33, 0xd1, 0x3c, 0x92, 0x96, 0xaa, 0xbd, 0x89, 0xfa, 0x8b, 0x3e,
  0x56, 0xc2, 0x00, 0x3c, 0x3f, 0x8e, 0x87, 0x3d, 0xed, 0x9d, 0x21, 0xbe,
  0x06, 0xd2, 0xa6, 0x3e, 0x16, 0x24, 0xf2, 0xbd, 0xdc, 0xf7, 0x40, 0xbe,
  0x52, 0x6e, 0xa2, 0xbe, 0x37, 0x04, 0x39, 0x3e, 0x88, 0x39, 0xcd, 0xbe,
  0xd5, 0x58, 0x63, 0x3e, 0x43, 0x3e, 0xc6, 0x3a, 0xb2, 0xc5, 0x07, 0x3e,
  0x24, 0xfe, 0xe8, 0x3e, 0x7a, 0xdf, 0x65, 0x3e, 0xc9, 0xd6, 0x16, 0xbc,
  0x6b, 0x07, 0x59, 0x3e, 0x60, 0x38, 0xf6, 0xbd, 0x40, 0xdb, 0x1a, 0x3e,
  0x6c, 0x44, 0x3b, 0xbe, 0x8f, 0x5d, 0x9d, 0x3e, 0x12, 0xa8, 0x89, 0xbe,
  0x13, 0xe0, 0x0f, 0x3e, 0xf9, 0x2b, 0xc4, 0x3d, 0x2f, 0x19, 0x45, 0x3e,
  0xdd, 0x4f, 0xfd, 0x3d, 0xd6, 0x6b, 0x9f, 0x3e, 0x7d, 0xdb, 0x9d, 0x3e,
  0xc7, 0x13, 0x79, 0x3e, 0x1e, 0x69, 0xfc, 0xbc, 0xe5, 0x9a, 0x8c, 0xbb,
  0x85, 0x92, 0x90, 0x3d, 0x50, 0x3f, 0x72, 0x3e, 0xa8, 0x01, 0x29, 0xbd,
  0x20, 0x05, 0x75, 0xbe, 0xb5, 0x3c, 0x82, 0x3e, 0x11, 0x1d, 0x89, 0x3e,
  0xc0, 0xc8, 0x67, 0xbe, 0x1a, 0xf3, 0x5b, 0xbd, 0x4d, 0xef, 0x78, 0xbe,
  0xd7, 0x96, 0xfa, 0xbd, 0x97, 0xc8, 0x15, 0x3e, 0x40, 0x16, 0xf4, 0xbd,
  0xa7, 0x3d, 0x15, 0xbe, 0xee, 0x13, 0x1e, 0xbe, 0x50, 0xc2, 0x40, 0x3d,
  0xde, 0x97, 0x52, 0xbe, 0x14, 0xca, 0x20, 0xbe, 0x38, 0x76, 0x40, 0x3d,
  0xcd, 0xf5, 0xb2, 0x3e, 0x18, 0x45, 0xb3, 0x3d, 0x2e, 0x4d, 0x89, 0x3e,
  0x22, 0x1d, 0x10, 0x3d, 0x0e, 0x44, 0x34, 0x3e, 0x81, 0xb7, 0x9d, 0xbe,
  0xb6, 0x50, 0x91, 0xbe, 0x00, 0x41, 0x86, 0xbe, 0x08, 0x8b, 0x11, 0x3d,
  0x7d, 0xde, 0xff, 0xbd, 0x79, 0x19, 0xf6, 0xbd, 0xd3, 0x62, 0x17, 0x3e,
  0xba, 0xa7, 0x7f, 0xbe, 0x70, 0x5e, 0x1c, 0xbd, 0x1b, 0x9c, 0x88, 0xbc,
  0xa9, 0x6b, 0x92, 0xbd, 0xa5, 0x81, 0x2e, 0x3e, 0xd5, 0x72, 0x66, 0xbe,
  0xfd, 0x7e, 0x86, 0x3e, 0x0f, 0x75, 0x44, 0xbe, 0x23, 0x7b, 0x2a, 0x3e,
  0x61, 0xf8, 0x92, 0x3e, 0x84, 0xe6, 0x93, 0xbb, 0x3d, 0x42, 0x1f, 0xbe,
  0x16, 0xb2, 0xd4, 0x3e, 0xf0, 0x31, 0xf3, 0xbd, 0x0a, 0x97, 0x98, 0x3e,
  0xe4, 0x9d, 0x28, 0x3e, 0xc8, 0x99, 0x2a, 0xbc, 0x08, 0x23, 0xa2, 0xbd,
  0xa8, 0x6e, 0x10, 0x3e, 0xd9, 0x1a, 0xd5, 0x3e, 0x8c, 0x65, 0x0b, 0x3e,
  0xea, 0x58, 0x11, 0x3e, 0x4b, 0xbd, 0x84, 0x3e, 0xee, 0x9d, 0x8b, 0xbc,
  0xd2, 0x7d, 0xa0, 0xbe, 0x40, 0x01, 0x82, 0x3d, 0xec, 0xf0, 0x57, 0xbe,
  0x14, 0xe5, 0x34, 0xbe, 0x85, 0xb1, 0xe4, 0xbe, 0xb1, 0x9e, 0xde, 0xbd,
  0xb1, 0x29, 0x9f, 0xbe, 0x7b, 0x2d, 0x1c, 0x3e, 0x3b, 0x01, 0xf5, 0x3d,
  0x1d, 0x9b, 0x90, 0x3e, 0x97, 0xe1, 0x4c, 0x3e, 0x5a, 0xe0, 0xa2, 0xbd,
  0x9e, 0xca, 0xce, 0x3e, 0xfb, 0x53, 0x9e, 0xbc, 0xfa, 0xc6, 0x03, 0x3d,
  0x44, 0x9b, 0xc0, 0xbd, 0x96, 0x6b, 0x52, 0x3e, 0x00, 0xc3, 0xd9, 0xbb,
  0x82, 0x7d, 0x26, 0x3e, 0xa0, 0x9d, 0xf1, 0xbc, 0xc4, 0x49, 0x0a, 0xbe,
  0xd8, 0x40, 0x77, 0xbd, 0xec, 0xbb, 0x01, 0xbe, 0x94, 0x7e, 0x98, 0xbe,
  0x00, 0x3d, 0xaf, 0x3c, 0x9c, 0x39, 0xfd, 0x3d, 0xf3, 0xd7, 0x1d, 0xbe,
  0x71, 0xd7, 0xb2, 0xbe, 0xb8, 0x87, 0xa2, 0xbe, 0x51, 0xa5, 0x1a, 0xbe,
  0xa8, 0xab, 0x9e, 0xbd, 0x08, 0x29, 0x70, 0xbe, 0xf8, 0xf5, 0x8e, 0xbe,
  0xd0, 0x5b, 0xc1, 0xbd, 0x40, 0x76, 0x29, 0x3d, 0x1a, 0x23, 0x2b, 0x3e,
  0x2f, 0x76, 0x81, 0xbe, 0x95, 0x73, 0x82, 0xbe, 0xe8, 0xc3, 0x92, 0xbe,
  0xda, 0x09, 0xdc, 0xbd, 0x19, 0x32, 0x8c, 0x3e, 0x80, 0x55, 0x01, 0xbe,
  0x4b, 0x56, 0x2c, 0xbe, 0x62, 0x26, 0x80, 0xbe, 0x3c, 0x11, 0xc5, 0xbd,
  0xcc, 0xbd, 0x81, 0xbe, 0xb7, 0x59, 0xac, 0x3e, 0xd4, 0xda, 0x93, 0x3e,
  0x46, 0x21, 0x84, 0xbe, 0x20, 0x79, 0xec, 0x3d, 0x9e, 0x9d, 0x6c, 0x3e,
  0x27, 0x4e, 0x9d, 0x3e, 0x89, 0x65, 0xbd, 0x3e, 0x3d, 0x16, 0x2f, 0x3e,
  0x3d, 0x39, 0x6b, 0xbd, 0x02, 0x35, 0xea, 0xbd, 0xbf, 0x2f, 0x8a, 0x3e,
  0xd0, 0xf8, 0x80, 0x3e, 0x49, 0xd4, 0x24, 0xbe, 0xc1, 0x36, 0xce, 0x3e,
  0xfd, 0x3e, 0xb7, 0xbc, 0x31, 0x3f, 0x87, 0xbe, 0x66, 0xc4, 0xf0, 0x3d,
  0x0a, 0x15, 0x81, 0xbe, 0x14, 0x21, 0xd3, 0xbe, 0x74, 0xb5, 0x4f, 0xbe,
  0xd4, 0xf4, 0xb1, 0xbe, 0x79, 0x75, 0x6a, 0x3e, 0xde, 0xfa, 0xc6, 0xbc,
  0x9f, 0x0a, 0xa2, 0x3d, 0x0b, 0xf6, 0x7d, 0xbe, 0x19, 0x75, 0x93, 0x3d,
  0xcd, 0x08, 0x46, 0x3e, 0x38, 0x23, 0x25, 0xbe, 0x39, 0xcf, 0xb0, 0xbe,
  0x37, 0xc2, 0x46, 0xbe, 0x0b, 0xfb, 0x62, 0x3e, 0x4d, 0x8b, 0xa1, 0x3e,
  0x0d, 0x91, 0x51, 0xbe, 0x6c, 0xe1, 0x89, 0xbe, 0xb2, 0xef, 0x35, 0x3d,
  0xef, 0x94, 0x18, 0xbe, 0xdd, 0x58, 0x3e, 0x3e, 0x5c, 0x08, 0x4b, 0xbd,
  0xb3, 0xf1, 0xde, 0x3e, 0x05, 0x50, 0x5d, 0x3e, 0xce, 0x35, 0xd5, 0x3e,
  0x7b, 0xde, 0x1b, 0xbe, 0x6e, 0xf5, 0x8e, 0xbe, 0x00, 0x8b, 0x66, 0x3d,
  0x97, 0x3d, 0xd7, 0x3e, 0x09, 0xe6, 0xef, 0x3e, 0x92, 0x00, 0x53, 0xbe,
  0x1c, 0xed, 0x6f, 0xbe, 0x88, 0x5d, 0xd2, 0x3e, 0x47, 0xd8, 0x12, 0xbe,
  0x33, 0x3d, 0x3b, 0x3d, 0xc4, 0xe6, 0x09, 0x3d, 0xbe, 0xbc, 0xd6, 0xbe,
  0x0e, 0xa9, 0xaf, 0xbe, 0x63, 0x3e, 0x32, 0xbe, 0x35, 0xc3, 0x11, 0xbe,
  0x7b, 0xae, 0x54, 0x3e, 0x12, 0xc5, 0xcd, 0xbd, 0x99, 0x42, 0xcd, 0x3d,
  0x34, 0xb9, 0x43, 0xbd, 0xc5, 0xb0, 0x97, 0xbc, 0xdf, 0x95, 0x97, 0x3e,
  0xd9, 0xa9, 0x07, 0x3d, 0x27, 0x52, 0x7a, 0x3c, 0x71, 0x49, 0xb2, 0xbc,
  0x16, 0x9b, 0xb5, 0xbe, 0xcd, 0x51, 0xf2, 0xbc, 0x44, 0x9c, 0xce, 0x3e,
  0xb0, 0x4b, 0xc2, 0x3e, 0x47, 0x09, 0xa9, 0x3e, 0xaa, 0xd0, 0x0c, 0xbd,
  0xe6, 0xe5, 0x53, 0x3d, 0x47, 0xf3, 0xd3, 0x3e, 0xb9, 0x59, 0x8a, 0x3b,
  0x85, 0xc0, 0x45, 0xbd, 0x65, 0x9d, 0x82, 0x3e, 0x9d, 0x15, 0xce, 0xbd,
  0xb9, 0xc0, 0x05, 0x3f, 0xc2, 0x46, 0xe7, 0x3e, 0xfe, 0xd5, 0xa1, 0xbe,
  0x53, 0x9b, 0xfa, 0x3d, 0xfe, 0x96, 0x0e, 0x3e, 0xc7, 0x9d, 0x9e, 0x3d,
  0xaa, 0x47, 0x78, 0xbe, 0xa8, 0x54, 0x58, 0xbe, 0x8a, 0x9a, 0x94, 0xbc,
  0x86, 0xd1, 0xd4, 0xbe, 0x4a, 0x3f, 0x38, 0xbd, 0x7b, 0x94, 0x36, 0xbd,
  0xe8, 0x5e, 0x70, 0xbe, 0x1e, 0x4f, 0x0d, 0xbe, 0x12, 0x62, 0xd0, 0x3d,
  0x4e, 0x61, 0xd8, 0xbe, 0x76, 0x0a, 0xed, 0xbd, 0x2d, 0xc9, 0xd1, 0x3e,
  0x10, 0x58, 0xfd, 0x3c, 0x96, 0xc8, 0xdd, 0xbe, 0xd4, 0xfa, 0x35, 0x3e,
  0xbd, 0xa1, 0x99, 0xbe, 0x7e, 0x2e, 0x0b, 0xbe, 0xae, 0xe3, 0xe4, 0x3e,
  0x23, 0xa3, 0xa0, 0x3e, 0xa6, 0x24, 0x87, 0x3e, 0xc5, 0xbb, 0xa8, 0x3e,
  0x33, 0x27, 0xe7, 0xbd, 0xc3, 0x7c, 0xfe, 0x3e, 0xc6, 0x90, 0xe0, 0xbe,
  0xa4, 0x5c, 0x85, 0xbe, 0x3f, 0xbe, 0x8d, 0xbe, 0x39, 0x29, 0x8a, 0x3e,
  0x68, 0x7e, 0xa9, 0x3e, 0x9f, 0x42, 0xcd, 0x3d, 0x2b, 0x53, 0xee, 0x3e,
  0xa9, 0x40, 0xd4, 0xbd, 0x64, 0xf2, 0x4d, 0xbe, 0x85, 0xae, 0x28, 0xbe,
  0x37, 0xcb, 0x03, 0x3e, 0x65, 0xd7, 0x28, 0x3d, 0x07, 0x4c, 0x79, 0xbe,
  0x17, 0x07, 0xd8, 0x3d, 0x1f, 0x56, 0x47, 0xbe, 0xa3, 0x95, 0xdb, 0xbe,
  0x3b, 0x26, 0xae, 0xbe, 0xac, 0x98, 0x81, 0x3e, 0x42, 0x31, 0xa7, 0xbe,
  0xcc, 0x67, 0x82, 0x3e, 0x69, 0x33, 0x0f, 0x3f, 0x9a, 0xdf, 0x8a, 0xbd,
  0xf8, 0xe7, 0x9c, 0xbe, 0x47, 0x02, 0x01, 0x3f, 0x21, 0x4a, 0x8b, 0xbe,
  0x45, 0x47, 0x75, 0xbe, 0x14, 0x18, 0x95, 0xbe, 0xf6, 0xd8, 0x79, 0xbe,
  0x4c, 0x73, 0x87, 0xbd, 0xa3, 0x5a, 0x22, 0x3d, 0x1b, 0xbe, 0x4b, 0xbe,
  0x83, 0x57, 0x45, 0xbd, 0x52, 0x3e, 0xc3, 0x3e, 0x6e, 0xc7, 0x90, 0x3e,
  0x49, 0xd4, 0x3a, 0xbe, 0x5b, 0x84, 0x8f, 0xbd, 0xa8, 0xaa, 0x31, 0x3e,
  0x1f, 0x1d, 0x39, 0x3c, 0x76, 0xb1, 0x5e, 0x3e, 0x45, 0x47, 0xa0, 0x3e,
  0x13, 0xb3, 0xcf, 0x3e, 0x9b, 0x17, 0xc4, 0x3e, 0xae, 0x5f, 0xdb, 0x3e,
  0xdc, 0x38, 0x81, 0x3e, 0xdc, 0xff, 0xe0, 0x3e, 0xac, 0x4f, 0x18, 0x3e,
  0xa0, 0xc8, 0x97, 0x3e, 0x10, 0xa0, 0xa3, 0x3e, 0x89, 0x18, 0xce, 0x3e,
  0xdf, 0x78, 0x89, 0x3d, 0x6a, 0x6e, 0x87, 0x3d, 0xc0, 0x2a, 0x0b, 0x3d,
  0x09, 0x8e, 0x1d, 0xbe, 0x57, 0xab, 0xaf, 0x3d, 0x67, 0x92, 0xd0, 0x3e,
  0xf1, 0x6d, 0x47, 0xbe, 0x14, 0x83, 0x49, 0xbd, 0x5a, 0x5f, 0x1b, 0xbe,
  0xe2, 0x51, 0x0f, 0x3d, 0x6e, 0xd6, 0x40, 0x3e, 0xab, 0xeb, 0xd3, 0xbd,
  0xda, 0x4f, 0x8e, 0xbe, 0x17, 0x82, 0x0a, 0x3f, 0x40, 0xff, 0x03, 0x3f,
  0x01, 0x4b, 0x92, 0xbe, 0xbe, 0xc9, 0xe2, 0xbe, 0x4f, 0x63, 0xd3, 0xbc,
  0xfa, 0x70, 0x0f, 0x3c, 0x1d, 0x39, 0x15, 0x3e, 0xca, 0xba, 0x80, 0xbe,
  0xd9, 0x6e, 0xa9, 0x3d, 0x35, 0xdf, 0x74, 0x3e, 0x4f, 0xb7, 0x10, 0x3d,
  0xd5, 0x25, 0xd1, 0xbe, 0xe4, 0xb9, 0x8b, 0xbe, 0xe6, 0x06, 0x4d, 0xbe,
  0xcb, 0x5c, 0x8d, 0xbc, 0xd2, 0xbb, 0x9b, 0xbe, 0x77, 0x0a, 0x75, 0x3e,
  0x38, 0xf0, 0x9a, 0x3e, 0x5e, 0xe9, 0x7c, 0x3e, 0x86, 0xac, 0x1e, 0x3e,
  0xfe, 0xb4, 0x98, 0xbe, 0x98, 0x4a, 0x46, 0xbd, 0xd3, 0xa5, 0x0e, 0xbe,
  0x3b, 0xaa, 0xab, 0xbd, 0xf5, 0x43, 0xf3, 0x3c, 0x01, 0x61, 0xe9, 0x3e,
  0x09, 0x73, 0xff, 0x3d, 0x7e, 0x9e, 0xce, 0xbe, 0x63, 0x84, 0x99, 0x3e,
  0x53, 0xe1, 0x9a, 0xbe, 0x22, 0x7d, 0x03, 0xbe, 0x59, 0x44, 0x28, 0xbe,
  0x96, 0xb6, 0x91, 0xbe, 0x06, 0xe3, 0xa6, 0x3b, 0x71, 0x71, 0xaa, 0x3e,
  0x3d, 0x14, 0x59, 0x3e, 0x0b, 0x70, 0x4d, 0x3e, 0xa3, 0x2d, 0x65, 0xbe,
  0x1e, 0xf7, 0xc1, 0x3b, 0x71, 0xd9, 0xe8, 0x3e, 0x47, 0xea, 0xa6, 0x3b,
  0x13, 0xd1, 0x09, 0x3f, 0x63, 0x75, 0x15, 0x3e, 0x99, 0xdb, 0x53, 0x3d,
  0x56, 0xd9, 0x5e, 0x3e, 0xf6, 0xb6, 0x28, 0xbd, 0x1f, 0xcf, 0xeb, 0xbd,
  0x2d, 0xb6, 0x35, 0x3e, 0x4a, 0x2a, 0x59, 0xbc, 0x66, 0xbb, 0xd9, 0xbc,
  0x7c, 0x55, 0xeb, 0x3e, 0xd4, 0xba, 0x5e, 0xbe, 0xbf, 0xe5, 0x89, 0x3e,
  0x0b, 0x2b, 0xc2, 0x3e, 0xcd, 0xcd, 0x8a, 0xbe, 0x2c, 0xb4, 0x53, 0x3e,
  0x74, 0xa8, 0xab, 0x3e, 0xb1, 0xd1, 0xa5, 0xbc, 0x1e, 0x45, 0x5b, 0x3e,
  0x5c, 0x05, 0xf1, 0x3e, 0xae, 0x97, 0x02, 0xbe, 0xa0, 0xa9, 0x04, 0x3d,
  0x8b, 0x00, 0x09, 0x3f, 0xa2, 0xd9, 0xd2, 0x3d, 0x7d, 0xfd, 0xc6, 0x3e,
  0x38, 0xeb, 0xc6, 0x3e, 0x16, 0x20, 0x89, 0xbe, 0x1a, 0x97, 0x9e, 0xbd,
  0xe0, 0x08, 0xaa, 0x3e, 0x70, 0x2e, 0x30, 0x3e, 0x44, 0x84, 0xd7, 0x3d,
  0xd8, 0x5b, 0x02, 0xbe, 0x66, 0xac, 0x4a, 0x3e, 0xd8, 0xca, 0xb5, 0xbe,
  0xef, 0x77, 0x0b, 0xbe, 0xfe, 0x9b, 0xa6, 0x3d, 0xe9, 0xbf, 0xb3, 0xbe,
  0x42, 0x9f, 0x0a, 0xbc, 0x0a, 0x2d, 0xdc, 0xbe, 0xe3, 0x51, 0xa9, 0xbe,
  0xca, 0xf3, 0x45, 0xbc, 0x42, 0x0b, 0x5e, 0x3e, 0x9b, 0x16, 0xd8, 0x3d,
  0xf0, 0xa3, 0xc9, 0x3e, 0xe0, 0xde, 0x2c, 0xbe, 0x93, 0xc7, 0x1c, 0xbe,
  0x6c, 0x4b, 0x33, 0x3e, 0x91, 0x14, 0x1d, 0x3e, 0xfc, 0x79, 0x45, 0xbe,
  0x03, 0x3e, 0xae, 0x3e, 0x55, 0x76, 0x49, 0xbd, 0xe7, 0x94, 0x6e, 0xbe,
  0x8b, 0x92, 0x5a, 0xbd, 0x15, 0xf6, 0x97, 0x3e, 0x66, 0x14, 0x7d, 0xbe,
  0x88, 0x17, 0xe4, 0x3e, 0x65, 0x40, 0x60, 0x3e, 0x4b, 0x97, 0xac, 0xbe,
  0x18, 0xd6, 0xf2, 0x3d, 0xf4, 0x76, 0x8e, 0x3e, 0xf8, 0x62, 0x0b, 0xbe,
  0xbb, 0xc7, 0x19, 0x3e, 0x82, 0x1e, 0x86, 0xbc, 0xf9, 0x55, 0x8e, 0x3d,
  0x0a, 0xe2, 0x85, 0x3e, 0xd4, 0x3b, 0xbd, 0x3d, 0x54, 0x12, 0x02, 0x3e,
  0xa2, 0xfe, 0x40, 0xbe, 0xc7, 0xa4, 0x5d, 0xbe, 0x72, 0xb1, 0xf4, 0x3e,
  0x80, 0xdf, 0x8f, 0xbd, 0xfa, 0x04, 0x8e, 0x3e, 0x44, 0xe7, 0x1f, 0xbe,
  0x58, 0x61, 0xfe, 0x3c, 0xb9, 0xc9, 0x04, 0xbc, 0x71, 0xe1, 0xb6, 0xbe,
  0xa1, 0x44, 0x87, 0x3e, 0xb5, 0x96, 0x2f, 0x3e, 0x41, 0xe9, 0x5a, 0xbe,
  0x22, 0xe1, 0xb1, 0x3e, 0x43, 0x57, 0x6d, 0xbd, 0xb7, 0x71, 0xc2, 0x3e,
  0xec, 0x7f, 0xc0, 0x3e, 0x33, 0xd9, 0x2e, 0x3e, 0x8c, 0xf5, 0x50, 0x3d,
  0x55, 0xa7, 0x99, 0x3e, 0x2c, 0x3c, 0xc2, 0xbe, 0x32, 0x9d, 0x1e, 0xbe,
  0x33, 0xc7, 0x50, 0x3e, 0xac, 0xe1, 0x33, 0xbe, 0x93, 0x42, 0x1c, 0x3f,
  0xa7, 0x4a, 0xdd, 0xbc, 0x8c, 0x93, 0x2d, 0xbc, 0x24, 0x6e, 0x3c, 0xbd,
  0x4b, 0xb9, 0x07, 0xbd, 0xa2, 0xb3, 0x2d, 0xbc, 0x43, 0x72, 0x0a, 0xbb,
  0xca, 0x60, 0x16, 0x3f, 0x0e, 0xe5, 0xd3, 0x3e, 0x2c, 0x58, 0xb6, 0x3d,
  0x2d, 0x09, 0xce, 0x3d, 0xd0, 0xeb, 0x06, 0x3f, 0x91, 0xcb, 0x3f, 0x3e,
  0xdf, 0x26, 0x3d, 0x3e, 0xaa, 0xde, 0xb4, 0x3e, 0x1d, 0xee, 0x1d, 0x3d,
  0xa1, 0x8b, 0xf7, 0x3e, 0x3a, 0xaa, 0x76, 0xbe, 0x3f, 0x23, 0x17, 0x3e,
  0x73, 0x33, 0x09, 0x3e, 0x16, 0xd8, 0x4c, 0x3e, 0x99, 0x47, 0x7f, 0xbd,
  0x2d, 0xb3, 0x7d, 0x3b, 0xde, 0xfe, 0xff, 0xff, 0x04, 0x00, 0x00, 0x00,
  0x80, 0x00, 0x00, 0x00, 0x8b, 0xda, 0x83, 0x3e, 0xc4, 0x79, 0x02, 0xbf,
  0x56, 0x7b, 0xe3, 0xbd, 0xcc, 0xd3, 0xcb, 0x3e, 0x65, 0x9f, 0x13, 0x3c,
  0x58, 0x7a, 0x32, 0x3e, 0xd9, 0xf6, 0x21, 0x3e, 0xd2, 0x66, 0x69, 0xbe,
  0xb3, 0xce, 0x2b, 0x3f, 0x62, 0xf7, 0x40, 0x3f, 0x5b, 0x9c, 0x14, 0xbf,
  0x55, 0x6d, 0x32, 0x3f, 0xc8, 0xad, 0x0e, 0xbe, 0x42, 0x21, 0xdc, 0x3e,
  0x6e, 0x54, 0xa4, 0xbe, 0xb1, 0x8e, 0x72, 0x3e, 0x24, 0x67, 0xf6, 0x3e,
  0xef, 0x45, 0x3f, 0x3f, 0xd9, 0x70, 0xfe, 0x3e, 0xf0, 0x6d, 0x71, 0xbe,
  0x67, 0xcd, 0x49, 0xbf, 0xe4, 0xd1, 0x02, 0xbe, 0xd9, 0x43, 0x5e, 0xbe,
  0x3c, 0xdf, 0x22, 0xbf, 0xb6, 0x1b, 0x74, 0xbe, 0x9a, 0x01, 0xb0, 0xbe,
  0x4d, 0x4a, 0x00, 0xbe, 0x5d, 0x54, 0xaf, 0xbe, 0x63, 0x9c, 0x7e, 0x3e,
  0xf9, 0x26, 0x59, 0xbf, 0xdc, 0x4f, 0x73, 0x3e, 0x02, 0xed, 0xfa, 0x3e,
  0x68, 0xfa, 0xff, 0xff, 0x6c, 0xfa, 0xff, 0xff, 0x0f, 0x00, 0x00, 0x00,
  0x4d, 0x4c, 0x49, 0x52, 0x20, 0x43, 0x6f, 0x6e, 0x76, 0x65, 0x72, 0x74,
  0x65, 0x64, 0x2e, 0x00, 0x01, 0x00, 0x00, 0x00, 0x14, 0x00, 0x00, 0x00,
  0x00, 0x00, 0x0e, 0x00, 0x18, 0x00, 0x14, 0x00, 0x10, 0x00, 0x0c, 0x00,
  0x08, 0x00, 0x04, 0x00, 0x0e, 0x00, 0x00, 0x00, 0x14, 0x00, 0x00, 0x00,
  0x1c, 0x00, 0x00, 0x00, 0x24, 0x01, 0x00, 0x00, 0x28, 0x01, 0x00, 0x00,
  0x2c, 0x01, 0x00, 0x00, 0x04, 0x00, 0x00, 0x00, 0x6d, 0x61, 0x69, 0x6e,
  0x00, 0x00, 0x00, 0x00, 0x04, 0x00, 0x00, 0x00, 0xcc, 0x00, 0x00, 0x00,
  0x84, 0x00, 0x00, 0x00, 0x50, 0x00, 0x00, 0x00, 0x14, 0x00, 0x00, 0x00,
  0x00, 0x00, 0x0e, 0x00, 0x1a, 0x00, 0x14, 0x00, 0x10, 0x00, 0x0c, 0x00,
  0x0b, 0x00, 0x04, 0x00, 0x0e, 0x00, 0x00, 0x00, 0x1c, 0x00, 0x00, 0x00,
  0x00, 0x00, 0x00, 0x09, 0x1c, 0x00, 0x00, 0x00, 0x20, 0x00, 0x00, 0x00,
  0x01, 0x00, 0x00, 0x00, 0x00, 0x00, 0x06, 0x00, 0x08, 0x00, 0x04, 0x00,
  0x06, 0x00, 0x00, 0x00, 0x00, 0x00, 0x80, 0x3f, 0x01, 0x00, 0x00, 0x00,
  0x0a, 0x00, 0x00, 0x00, 0x01, 0x00, 0x00, 0x00, 0x09, 0x00, 0x00, 0x00,
  0x9a, 0xff, 0xff, 0xff, 0x10, 0x00, 0x00, 0x00, 0x00, 0x00, 0x00, 0x08,
  0x0c, 0x00, 0x00, 0x00, 0x10, 0x00, 0x00, 0x00, 0x30, 0xfb, 0xff, 0xff,
  0x01, 0x00, 0x00, 0x00, 0x09, 0x00, 0x00, 0x00, 0x03, 0x00, 0x00, 0x00,
  0x08, 0x00, 0x00, 0x00, 0x01, 0x00, 0x00, 0x00, 0x03, 0x00, 0x00, 0x00,
  0xca, 0xff, 0xff, 0xff, 0x10, 0x00, 0x00, 0x00, 0x00, 0x00, 0x00, 0x08,
  0x10, 0x00, 0x00, 0x00, 0x14, 0x00, 0x00, 0x00, 0xba, 0xff, 0xff, 0xff,
  0x00, 0x00, 0x00, 0x01, 0x01, 0x00, 0x00, 0x00, 0x08, 0x00, 0x00, 0x00,
  0x03, 0x00, 0x00, 0x00, 0x07, 0x00, 0x00, 0x00, 0x02, 0x00, 0x00, 0x00,
  0x04, 0x00, 0x00, 0x00, 0x00, 0x00, 0x0e, 0x00, 0x16, 0x00, 0x00, 0x00,
  0x10, 0x00, 0x0c, 0x00, 0x0b, 0x00, 0x04, 0x00, 0x0e, 0x00, 0x00, 0x00,
  0x18, 0x00, 0x00, 0x00, 0x00, 0x00, 0x00, 0x08, 0x18, 0x00, 0x00, 0x00,
  0x1c, 0x00, 0x00, 0x00, 0x00, 0x00, 0x06, 0x00, 0x08, 0x00, 0x07, 0x00,
  0x06, 0x00, 0x00, 0x00, 0x00, 0x00, 0x00, 0x01, 0x01, 0x00, 0x00, 0x00,
  0x07, 0x00, 0x00, 0x00, 0x03, 0x00, 0x00, 0x00, 0x00, 0x00, 0x00, 0x00,
  0x06, 0x00, 0x00, 0x00, 0x05, 0x00, 0x00, 0x00, 0x01, 0x00, 0x00, 0x00,
  0x0a, 0x00, 0x00, 0x00, 0x01, 0x00, 0x00, 0x00, 0x00, 0x00, 0x00, 0x00,
  0x0b, 0x00, 0x00, 0x00, 0xf8, 0x03, 0x00, 0x00, 0xa0, 0x03, 0x00, 0x00,
  0x48, 0x03, 0x00, 0x00, 0x0c, 0x03, 0x00, 0x00, 0xd0, 0x02, 0x00, 0x00,
  0x74, 0x02, 0x00, 0x00, 0x24, 0x02, 0x00, 0x00, 0x84, 0x01, 0x00, 0x00,
  0xe4, 0x00, 0x00, 0x00, 0x60, 0x00, 0x00, 0x00, 0x04, 0x00, 0x00, 0x00,
  0x4a, 0xfc, 0xff, 0xff, 0x00, 0x00, 0x00, 0x01, 0x14, 0x00, 0x00, 0x00,
  0x1c, 0x00, 0x00, 0x00, 0x1c, 0x00, 0x00, 0x00, 0x0b, 0x00, 0x00, 0x00,
  0x34, 0x00, 0x00, 0x00, 0x02, 0x00, 0x00, 0x00, 0xff, 0xff, 0xff, 0xff,
  0x02, 0x00, 0x00, 0x00, 0x34, 0xfc, 0xff, 0xff, 0x1b, 0x00, 0x00, 0x00,
  0x53, 0x74, 0x61, 0x74, 0x65, 0x66, 0x75, 0x6c, 0x50, 0x61, 0x72, 0x74,
  0x69, 0x74, 0x69, 0x6f, 0x6e, 0x65, 0x64, 0x43, 0x61, 0x6c, 0x6c, 0x5f,
  0x31, 0x3a, 0x30, 0x00, 0x02, 0x00, 0x00, 0x00, 0x01, 0x00, 0x00, 0x00,
  0x02, 0x00, 0x00, 0x00, 0xa2, 0xfc, 0xff, 0xff, 0x00, 0x00, 0x00, 0x01,
  0x14, 0x00, 0x00, 0x00, 0x1c, 0x00, 0x00, 0x00, 0x1c, 0x00, 0x00, 0x00,
  0x0a, 0x00, 0x00, 0x00, 0x5c, 0x00, 0x00, 0x00, 0x02, 0x00, 0x00, 0x00,
  0xff, 0xff, 0xff, 0xff, 0x02, 0x00, 0x00, 0x00, 0x8c, 0xfc, 0xff, 0xff,
  0x40, 0x00, 0x00, 0x00, 0x73, 0x65, 0x71, 0x75, 0x65, 0x6e, 0x74, 0x69,
  0x61, 0x6c, 0x5f, 0x31, 0x5f, 0x31, 0x2f, 0x64, 0x65, 0x6e, 0x73, 0x65,
  0x5f, 0x35, 0x5f, 0x31, 0x2f, 0x4d, 0x61, 0x74, 0x4d, 0x75, 0x6c, 0x3b,
  0x73, 0x65, 0x71, 0x75, 0x65, 0x6e, 0x74, 0x69, 0x61, 0x6c, 0x5f, 0x31,
  0x5f, 0x31, 0x2f, 0x64, 0x65, 0x6e, 0x73, 0x65, 0x5f, 0x35, 0x5f, 0x31,
  0x2f, 0x42, 0x69, 0x61, 0x73, 0x41, 0x64, 0x64, 0x00, 0x00, 0x00, 0x00,
  0x02, 0x00, 0x00, 0x00, 0x01, 0x00, 0x00, 0x00, 0x02, 0x00, 0x00, 0x00,
  0x22, 0xfd, 0xff, 0xff, 0x00, 0x00, 0x00, 0x01, 0x14, 0x00, 0x00, 0x00,
  0x1c, 0x00, 0x00, 0x00, 0x1c, 0x00, 0x00, 0x00, 0x09, 0x00, 0x00, 0x00,
  0x78, 0x00, 0x00, 0x00, 0x02, 0x00, 0x00, 0x00, 0xff, 0xff, 0xff, 0xff,
  0x10, 0x00, 0x00, 0x00, 0x0c, 0xfd, 0xff, 0xff, 0x5e, 0x00, 0x00, 0x00,
  0x73, 0x65, 0x71, 0x75, 0x65, 0x6e, 0x74, 0x69, 0x61, 0x6c, 0x5f, 0x31,
  0x5f, 0x31, 0x2f, 0x64, 0x65, 0x6e, 0x73, 0x65, 0x5f, 0x34, 0x5f, 0x31,
  0x2f, 0x4d, 0x61, 0x74, 0x4d, 0x75, 0x6c, 0x3b, 0x73, 0x65, 0x71, 0x75,
  0x65, 0x6e, 0x74, 0x69, 0x61, 0x6c, 0x5f, 0x31, 0x5f, 0x31, 0x2f, 0x64,
  0x65, 0x6e, 0x73, 0x65, 0x5f, 0x34, 0x5f, 0x31, 0x2f, 0x52, 0x65, 0x6c,
  0x75, 0x3b, 0x73, 0x65, 0x71, 0x75, 0x65, 0x6e, 0x74, 0x69, 0x61, 0x6c,
  0x5f, 0x31, 0x5f, 0x31, 0x2f, 0x64, 0x65, 0x6e, 0x73, 0x65, 0x5f, 0x34,
  0x5f, 0x31, 0x2f, 0x42, 0x69, 0x61, 0x73, 0x41, 0x64, 0x64, 0x00, 0x00,
  0x02, 0x00, 0x00, 0x00, 0x01, 0x00, 0x00, 0x00, 0x10, 0x00, 0x00, 0x00,
  0xbe, 0xfd, 0xff, 0xff, 0x00, 0x00, 0x00, 0x01, 0x14, 0x00, 0x00, 0x00,
  0x1c, 0x00, 0x00, 0x00, 0x1c, 0x00, 0x00, 0x00, 0x08, 0x00, 0x00, 0x00,
  0x78, 0x00, 0x00, 0x00, 0x02, 0x00, 0x00, 0x00, 0xff, 0xff, 0xff, 0xff,
  0x20, 0x00, 0x00, 0x00, 0xa8, 0xfd, 0xff, 0xff, 0x5e, 0x00, 0x00, 0x00,
  0x73, 0x65, 0x71, 0x75, 0x65, 0x6e, 0x74, 0x69, 0x61, 0x6c, 0x5f, 0x31,
  0x5f, 0x31, 0x2f, 0x64, 0x65, 0x6e, 0x73, 0x65, 0x5f, 0x33, 0x5f, 0x31,
  0x2f, 0x4d, 0x61, 0x74, 0x4d, 0x75, 0x6c, 0x3b, 0x73, 0x65, 0x71, 0x75,
  0x65, 0x6e, 0x74, 0x69, 0x61, 0x6c, 0x5f, 0x31, 0x5f, 0x31, 0x2f, 0x64,
  0x65, 0x6e, 0x73, 0x65, 0x5f, 0x33, 0x5f, 0x31, 0x2f, 0x52, 0x65, 0x6c,
  0x75, 0x3b, 0x73, 0x65, 0x71, 0x75, 0x65, 0x6e, 0x74, 0x69, 0x61, 0x6c,
  0x5f, 0x31, 0x5f, 0x31, 0x2f, 0x64, 0x65, 0x6e, 0x73, 0x65, 0x5f, 0x33,
  0x5f, 0x31, 0x2f, 0x42, 0x69, 0x61, 0x73, 0x41, 0x64, 0x64, 0x00, 0x00,
  0x02, 0x00, 0x00, 0x00, 0x01, 0x00, 0x00, 0x00, 0x20, 0x00, 0x00, 0x00,
  0xae, 0xfe, 0xff, 0xff, 0x00, 0x00, 0x00, 0x01, 0x10, 0x00, 0x00, 0x00,
  0x10, 0x00, 0x00, 0x00, 0x07, 0x00, 0x00, 0x00, 0x2c, 0x00, 0x00, 0x00,
  0x34, 0xfe, 0xff, 0xff, 0x1f, 0x00, 0x00, 0x00, 0x73, 0x65, 0x71, 0x75,
  0x65, 0x6e, 0x74, 0x69, 0x61, 0x6c, 0x5f, 0x31, 0x5f, 0x31, 0x2f, 0x64,
  0x65, 0x6e, 0x73, 0x65, 0x5f, 0x33, 0x5f, 0x31, 0x2f, 0x4d, 0x61, 0x74,
  0x4d, 0x75, 0x6c, 0x00, 0x02, 0x00, 0x00, 0x00, 0x20, 0x00, 0x00, 0x00,
  0x1e, 0x00, 0x00, 0x00, 0xfa, 0xfe, 0xff, 0xff, 0x00, 0x00, 0x00, 0x01,
  0x10, 0x00, 0x00, 0x00, 0x10, 0x00, 0x00, 0x00, 0x06, 0x00, 0x00, 0x00,
  0x3c, 0x00, 0x00, 0x00, 0x80, 0xfe, 0xff, 0xff, 0x2f, 0x00, 0x00, 0x00,
  0x73, 0x65, 0x71, 0x75, 0x65, 0x6e, 0x74, 0x69, 0x61, 0x6c, 0x5f, 0x31,
  0x5f, 0x31, 0x2f, 0x64, 0x65, 0x6e, 0x73, 0x65, 0x5f, 0x33, 0x5f, 0x31,
  0x2f, 0x42, 0x69, 0x61, 0x73, 0x41, 0x64, 0x64, 0x2f, 0x52, 0x65, 0x61,
  0x64, 0x56, 0x61, 0x72, 0x69, 0x61, 0x62, 0x6c, 0x65, 0x4f, 0x70, 0x00,
  0x01, 0x00, 0x00, 0x00, 0x20, 0x00, 0x00, 0x00, 0x52, 0xff, 0xff, 0xff,
  0x00, 0x00, 0x00, 0x01, 0x10, 0x00, 0x00, 0x00, 0x10, 0x00, 0x00, 0x00,
  0x05, 0x00, 0x00, 0x00, 0x1c, 0x00, 0x00, 0x00, 0xd8, 0xfe, 0xff, 0xff,
  0x0f, 0x00, 0x00, 0x00, 0x61, 0x72, 0x69, 0x74, 0x68, 0x2e, 0x63, 0x6f,
  0x6e, 0x73, 0x74, 0x61, 0x6e, 0x74, 0x33, 0x00, 0x01, 0x00, 0x00, 0x00,
  0x10, 0x00, 0x00, 0x00, 0x8a, 0xff, 0xff, 0xff, 0x00, 0x00, 0x00, 0x01,
  0x10, 0x00, 0x00, 0x00, 0x10, 0x00, 0x00, 0x00, 0x04, 0x00, 0x00, 0x00,
  0x1c, 0x00, 0x00, 0x00, 0x10, 0xff, 0xff, 0xff, 0x0f, 0x00, 0x00, 0x00,
  0x61, 0x72, 0x69, 0x74, 0x68, 0x2e, 0x63, 0x6f, 0x6e, 0x73, 0x74, 0x61,
  0x6e, 0x74, 0x32, 0x00, 0x01, 0x00, 0x00, 0x00, 0x02, 0x00, 0x00, 0x00,
  0xc2, 0xff, 0xff, 0xff, 0x00, 0x00, 0x00, 0x01, 0x10, 0x00, 0x00, 0x00,
  0x10, 0x00, 0x00, 0x00, 0x03, 0x00, 0x00, 0x00, 0x1c, 0x00, 0x00, 0x00,
  0x48, 0xff, 0xff, 0xff, 0x0f, 0x00, 0x00, 0x00, 0x61, 0x72, 0x69, 0x74,
  0x68, 0x2e, 0x63, 0x6f, 0x6e, 0x73, 0x74, 0x61, 0x6e, 0x74, 0x31, 0x00,
  0x02, 0x00, 0x00, 0x00, 0x10, 0x00, 0x00, 0x00, 0x20, 0x00, 0x00, 0x00,
  0x00, 0x00, 0x16, 0x00, 0x18, 0x00, 0x14, 0x00, 0x00, 0x00, 0x10, 0x00,
  0x0c, 0x00, 0x08, 0x00, 0x00, 0x00, 0x00, 0x00, 0x00, 0x00, 0x07, 0x00,
  0x16, 0x00, 0x00, 0x00, 0x00, 0x00, 0x00, 0x01, 0x10, 0x00, 0x00, 0x00,
  0x10, 0x00, 0x00, 0x00, 0x02, 0x00, 0x00, 0x00, 0x1c, 0x00, 0x00, 0x00,
  0x9c, 0xff, 0xff, 0xff, 0x0e, 0x00, 0x00, 0x00, 0x61, 0x72, 0x69, 0x74,
  0x68, 0x2e, 0x63, 0x6f, 0x6e, 0x73, 0x74, 0x61, 0x6e, 0x74, 0x00, 0x00,
  0x02, 0x00, 0x00, 0x00, 0x02, 0x00, 0x00, 0x00, 0x10, 0x00, 0x00, 0x00,
  0x00, 0x00, 0x16, 0x00, 0x1c, 0x00, 0x18, 0x00, 0x00, 0x00, 0x14, 0x00,
  0x10, 0x00, 0x0c, 0x00, 0x00, 0x00, 0x00, 0x00, 0x08, 0x00, 0x07, 0x00,
  0x16, 0x00, 0x00, 0x00, 0x00, 0x00, 0x00, 0x01, 0x14, 0x00, 0x00, 0x00,
  0x20, 0x00, 0x00, 0x00, 0x20, 0x00, 0x00, 0x00, 0x01, 0x00, 0x00, 0x00,
  0x3c, 0x00, 0x00, 0x00, 0x02, 0x00, 0x00, 0x00, 0xff, 0xff, 0xff, 0xff,
  0x1e, 0x00, 0x00, 0x00, 0x04, 0x00, 0x04, 0x00, 0x04, 0x00, 0x00, 0x00,
  0x1f, 0x00, 0x00, 0x00, 0x73, 0x65, 0x72, 0x76, 0x69, 0x6e, 0x67, 0x5f,
  0x64, 0x65, 0x66, 0x61, 0x75, 0x6c, 0x74, 0x5f, 0x69, 0x6e, 0x70, 0x75,
  0x74, 0x5f, 0x6c, 0x61, 0x79, 0x65, 0x72, 0x5f, 0x31, 0x3a, 0x30, 0x00,
  0x02, 0x00, 0x00, 0x00, 0x01, 0x00, 0x00, 0x00, 0x1e, 0x00, 0x00, 0x00,
  0x02, 0x00, 0x00, 0x00, 0x20, 0x00, 0x00, 0x00, 0x04, 0x00, 0x00, 0x00,
  0xf4, 0xff, 0xff, 0xff, 0x19, 0x00, 0x00, 0x00, 0x00, 0x00, 0x00, 0x19,
  0x0c, 0x00, 0x0c, 0x00, 0x0b, 0x00, 0x00, 0x00, 0x00, 0x00, 0x04, 0x00,
  0x0c, 0x00, 0x00, 0x00, 0x09, 0x00, 0x00, 0x00, 0x00, 0x00, 0x00, 0x09
};
unsigned int model_tflite_len = 8316;
